{
  "version": "1.0",
  "truncation": null,
  "padding": null,
  "added_tokens": [
    {
      "id": 0,
      "special": true,
      "content": "[STOP]",
      "single_word": false,
      "lstrip": false,
      "rstrip": false,
      "normalized": false
    },
    {
      "id": 1,
      "special": true,
      "content": "[UNK]",
      "single_word": false,
      "lstrip": false,
      "rstrip": false,
      "normalized": false
    },
    {
      "id": 2,
      "special": true,
      "content": "[SPACE]",
      "single_word": false,
      "lstrip": false,
      "rstrip": false,
      "normalized": false
    },
    {
      "id": 255,
      "special": true,
      "content": "[START]",
      "single_word": false,
      "lstrip": false,
      "rstrip": false,
      "normalized": false
    },
    {
      "id": 604,
      "content": "[UH]",
      "single_word": false,
      "lstrip": false,
      "rstrip": false,
      "normalized": false,
      "special": true
    },
    {
      "id": 605,
      "content": "[UM]",
      "single_word": false,
      "lstrip": false,
      "rstrip": false,
      "normalized": false,
      "special": true
    },
    {
      "id": 606,
      "content": "[giggle]",
      "single_word": false,
      "lstrip": false,
      "rstrip": false,
      "normalized": false,
      "special": true
    },
    {
      "id": 607,
      "content": "[laughter]",
      "single_word": false,
      "lstrip": false,
      "rstrip": false,
      "normalized": false,
      "special": true
    },
    {
      "id": 608,
      "content": "[guffaw]",
      "single_word": false,
      "lstrip": false,
      "rstrip": false,
      "normalized": false,
      "special": true
    },
    {
      "id": 609,
      "content": "[inhale]",
      "single_word": false,
      "lstrip": false,
      "rstrip": false,
      "normalized": false,
      "special": true
    },
    {
      "id": 610,
      "content": "[exhale]",
      "single_word": false,
      "lstrip": false,
      "rstrip": false,
      "normalized": false,
      "special": true
    },
    {
      "id": 611,
      "content": "[sigh]",
      "single_word": false,
      "lstrip": false,
      "rstrip": false,
      "normalized": false,
      "special": true
    },
    {
      "id": 612,
      "content": "[cry]",
      "single_word": false,
      "lstrip": false,
      "rstrip": false,
      "normalized": false,
      "special": true
    },
    {
      "id": 613,
      "content": "[bark]",
      "single_word": false,
      "lstrip": false,
      "rstrip": false,
      "normalized": false,
      "special": true
    },
    {
      "id": 614,
      "content": "[howl]",
      "single_word": false,
      "lstrip": false,
      "rstrip": false,
      "normalized": false,
      "special": true
    },
    {
      "id": 615,
      "content": "[meow]",
      "single_word": false,
      "lstrip": false,
      "rstrip": false,
      "normalized": false,
      "special": true
    },
    {
      "id": 616,
      "content": "[singing]",
      "single_word": false,
      "lstrip": false,
      "rstrip": false,
      "normalized": false,
      "special": true
    },
    {
      "id": 617,
      "content": "[music]",
      "single_word": false,
      "lstrip": false,
      "rstrip": false,
      "normalized": false,
      "special": true
    },
    {
      "id": 618,
      "content": "[whistle]",
      "single_word": false,
      "lstrip": false,
      "rstrip": false,
      "normalized": false,
      "special": true
    },
    {
      "id": 619,
      "content": "[humming]",
      "single_word": false,
      "lstrip": false,
      "rstrip": false,
      "normalized": false,
      "special": true
    },
    {
      "id": 620,
      "content": "[gasp]",
      "single_word": false,
      "lstrip": false,
      "rstrip": false,
      "normalized": false,
      "special": true
    },
    {
      "id": 621,
      "content": "[groan]",
      "single_word": false,
      "lstrip": false,
      "rstrip": false,
      "normalized": false,
      "special": true
    },
    {
      "id": 622,
      "content": "[whisper]",
      "single_word": false,
      "lstrip": false,
      "rstrip": false,
      "normalized": false,
      "special": true
    },
    {
      "id": 623,
      "content": "[mumble]",
      "single_word": false,
      "lstrip": false,
      "rstrip": false,
      "normalized": false,
      "special": true
    },
    {
      "id": 624,
      "content": "[sniff]",
      "single_word": false,
      "lstrip": false,
      "rstrip": false,
      "normalized": false,
      "special": true
    },
    {
      "id": 625,
      "content": "[sneeze]",
      "single_word": false,
      "lstrip": false,
      "rstrip": false,
      "normalized": false,
      "special": true
    },
    {
      "id": 626,
      "content": "[cough]",
      "single_word": false,
      "lstrip": false,
      "rstrip": false,
      "normalized": false,
      "special": true
    },
    {
      "id": 627,
      "content": "[snore]",
      "single_word": false,
      "lstrip": false,
      "rstrip": false,
      "normalized": false,
      "special": true
    },
    {
      "id": 628,
      "content": "[chew]",
      "single_word": false,
      "lstrip": false,
      "rstrip": false,
      "normalized": false,
      "special": true
    },
    {
      "id": 629,
      "content": "[sip]",
      "single_word": false,
      "lstrip": false,
      "rstrip": false,
      "normalized": false,
      "special": true
    },
    {
      "id": 630,
      "content": "[clear_throat]",
      "single_word": false,
      "lstrip": false,
      "rstrip": false,
      "normalized": false,
      "special": true
    },
    {
      "id": 631,
      "content": "[kiss]",
      "single_word": false,
      "lstrip": false,
      "rstrip": false,
      "normalized": false,
      "special": true
    },
    {
      "id": 632,
      "content": "[shhh]",
      "single_word": false,
      "lstrip": false,
      "rstrip": false,
      "normalized": false,
      "special": true
    },
    {
      "id": 633,
      "content": "[gibberish]",
      "single_word": false,
      "lstrip": false,
      "rstrip": false,
      "normalized": false,
      "special": true
    },
    {
      "id": 634,
      "content": "[fr]",
      "single_word": false,
      "lstrip": false,
      "rstrip": false,
      "normalized": false,
      "special": false
    },
    {
      "id": 635,
      "content": "[es]",
      "single_word": false,
      "lstrip": false,
      "rstrip": false,
      "normalized": false,
      "special": false
    },
    {
      "id": 636,
      "content": "[de]",
      "single_word": false,
      "lstrip": false,
      "rstrip": false,
      "normalized": false,
      "special": false
    },
    {
      "id": 637,
      "content": "[it]",
      "single_word": false,
      "lstrip": false,
      "rstrip": false,
      "normalized": false,
      "special": false
    },
    {
      "id": 638,
      "content": "[ipa]",
      "single_word": false,
      "lstrip": false,
      "rstrip": false,
      "normalized": false,
      "special": true
    },
    {
      "id": 639,
      "content": "[end_of_label]",
      "single_word": false,
      "lstrip": false,
      "rstrip": false,
      "normalized": false,
      "special": true
    },
    {
      "id": 695,
      "content": "[PLACEHOLDER55]",
      "single_word": false,
      "lstrip": false,
      "rstrip": false,
      "normalized": false,
      "special": true
    },
    {
      "id": 696,
      "content": "[PLACEHOLDER56]",
      "single_word": false,
      "lstrip": false,
      "rstrip": false,
      "normalized": false,
      "special": true
    },
    {
      "id": 697,
      "content": "[PLACEHOLDER57]",
      "single_word": false,
      "lstrip": false,
      "rstrip": false,
      "normalized": false,
      "special": true
    },
    {
      "id": 698,
      "content": "[PLACEHOLDER58]",
      "single_word": false,
      "lstrip": false,
      "rstrip": false,
      "normalized": false,
      "special": true
    },
    {
      "id": 699,
      "content": "[PLACEHOLDER59]",
      "single_word": false,
      "lstrip": false,
      "rstrip": false,
      "normalized": false,
      "special": true
    },
    {
      "id": 700,
      "content": "[PLACEHOLDER60]",
      "single_word": false,
      "lstrip": false,
      "rstrip": false,
      "normalized": false,
      "special": true
    },
    {
      "id": 701,
      "content": "[PLACEHOLDER61]",
      "single_word": false,
      "lstrip": false,
      "rstrip": false,
      "normalized": false,
      "special": true
    },
    {
      "id": 702,
      "content": "[PLACEHOLDER62]",
      "single_word": false,
      "lstrip": false,
      "rstrip": false,
      "normalized": false,
      "special": true
    },
    {
      "id": 703,
      "content": "[PLACEHOLDER63]",
      "single_word": false,
      "lstrip": false,
      "rstrip": false,
      "normalized": false,
      "special": true
    },
    {
      "id": 704,
      "content": "[MASK]",
      "single_word": false,
      "lstrip": false,
      "rstrip": false,
      "normalized": false,
      "special": true
    },
    {
      "id": 705,
      "content": "[PAD]",
      "single_word": false,
      "lstrip": false,
      "rstrip": false,
      "normalized": false,
      "special": true
    },
    {
      "id": 706,
      "content": "[SEP]",
      "single_word": false,
      "lstrip": false,
      "rstrip": false,
      "normalized": false,
      "special": true
    },
    {
      "id": 707,
      "content": "[CLS]",
      "single_word": false,
      "lstrip": false,
      "rstrip": false,
      "normalized": false,
      "special": true
    },
    {
      "id": 708,
      "content": "[en]",
      "single_word": false,
      "lstrip": false,
      "rstrip": false,
      "normalized": false,
      "special": false
    },
    {
      "id": 709,
      "content": "[nl]",
      "single_word": false,
      "lstrip": false,
      "rstrip": false,
      "normalized": false,
      "special": false
    },
    {
      "id": 710,
      "content": "[pt]",
      "single_word": false,
      "lstrip": false,
      "rstrip": false,
      "normalized": false,
      "special": false
    },
    {
      "id": 711,
      "content": "[el]",
      "single_word": false,
      "lstrip": false,
      "rstrip": false,
      "normalized": false,
      "special": false
    },
    {
      "id": 712,
      "content": "[tr]",
      "single_word": false,
      "lstrip": false,
      "rstrip": false,
      "normalized": false,
      "special": false
    },
    {
      "id": 713,
      "content": "[sv]",
      "single_word": false,
      "lstrip": false,
      "rstrip": false,
      "normalized": false,
      "special": false
    },
    {
      "id": 714,
      "content": "[no]",
      "single_word": false,
      "lstrip": false,
      "rstrip": false,
      "normalized": false,
      "special": false
    },
    {
      "id": 715,
      "content": "[da]",
      "single_word": false,
      "lstrip": false,
      "rstrip": false,
      "normalized": false,
      "special": false
    },
    {
      "id": 716,
      "content": "[ru]",
      "single_word": false,
      "lstrip": false,
      "rstrip": false,
      "normalized": false,
      "special": false
    },
    {
      "id": 717,
      "content": "[pl]",
      "single_word": false,
      "lstrip": false,
      "rstrip": false,
      "normalized": false,
      "special": false
    },
    {
      "id": 718,
      "content": "[sk]",
      "single_word": false,
      "lstrip": false,
      "rstrip": false,
      "normalized": false,
      "special": false
    },
    {
      "id": 719,
      "content": "[cs]",
      "single_word": false,
      "lstrip": false,
      "rstrip": false,
      "normalized": false,
      "special": false
    },
    {
      "id": 720,
      "content": "[hu]",
      "single_word": false,
      "lstrip": false,
      "rstrip": false,
      "normalized": false,
      "special": false
    },
    {
      "id": 721,
      "content": "[ar]",
      "single_word": false,
      "lstrip": false,
      "rstrip": false,
      "normalized": false,
      "special": false
    },
    {
      "id": 722,
      "content": "[hi]",
      "single_word": false,
      "lstrip": false,
      "rstrip": false,
      "normalized": false,
      "special": false
    },
    {
      "id": 723,
      "content": "[ja]",
      "single_word": false,
      "lstrip": false,
      "rstrip": false,
      "normalized": false,
      "special": false
    },
    {
      "id": 724,
      "content": "[ko]",
      "single_word": false,
      "lstrip": false,
      "rstrip": false,
      "normalized": false,
      "special": false
    },
    {
      "id": 725,
      "content": "[zh]",
      "single_word": false,
      "lstrip": false,
      "rstrip": false,
      "normalized": false,
      "special": false
    },
    {
      "id": 726,
      "content": "[ro]",
      "single_word": false,
      "lstrip": false,
      "rstrip": false,
      "normalized": false,
      "special": false
    },
    {
      "id": 727,
      "content": "[bg]",
      "single_word": false,
      "lstrip": false,
      "rstrip": false,
      "normalized": false,
      "special": false
    },
    {
      "id": 729,
      "content": "[ea]",
      "single_word": false,
      "lstrip": false,
      "rstrip": false,
      "normalized": false,
      "special": false
    },
    {
      "id": 730,
      "content": "[sw]",
      "single_word": false,
      "lstrip": false,
      "rstrip": false,
      "normalized": false,
      "special": false
    },
    {
      "id": 732,
      "content": "[vi]",
      "single_word": false,
      "lstrip": false,
      "rstrip": false,
      "normalized": false,
      "special": false
    },
    {
      "id": 733,
      "content": "[cj_a]",
      "single_word": false,
      "lstrip": false,
      "rstrip": false,
      "normalized": false,
      "special": true
    },
    {
      "id": 734,
      "content": "[cj_b]",
      "single_word": false,
      "lstrip": false,
      "rstrip": false,
      "normalized": false,
      "special": true
    },
    {
      "id": 735,
      "content": "[cj_c]",
      "single_word": false,
      "lstrip": false,
      "rstrip": false,
      "normalized": false,
      "special": true
    },
    {
      "id": 736,
      "content": "[cj_d]",
      "single_word": false,
      "lstrip": false,
      "rstrip": false,
      "normalized": false,
      "special": true
    },
    {
      "id": 737,
      "content": "[cj_e]",
      "single_word": false,
      "lstrip": false,
      "rstrip": false,
      "normalized": false,
      "special": true
    },
    {
      "id": 738,
      "content": "[cj_f]",
      "single_word": false,
      "lstrip": false,
      "rstrip": false,
      "normalized": false,
      "special": true
    },
    {
      "id": 739,
      "content": "[cj_g]",
      "single_word": false,
      "lstrip": false,
      "rstrip": false,
      "normalized": false,
      "special": true
    },
    {
      "id": 740,
      "content": "[cj_h]",
      "single_word": false,
      "lstrip": false,
      "rstrip": false,
      "normalized": false,
      "special": true
    },
    {
      "id": 741,
      "content": "[cj_i]",
      "single_word": false,
      "lstrip": false,
      "rstrip": false,
      "normalized": false,
      "special": true
    },
    {
      "id": 742,
      "content": "[cj_j]",
      "single_word": false,
      "lstrip": false,
      "rstrip": false,
      "normalized": false,
      "special": true
    },
    {
      "id": 743,
      "content": "[cj_k]",
      "single_word": false,
      "lstrip": false,
      "rstrip": false,
      "normalized": false,
      "special": true
    },
    {
      "id": 744,
      "content": "[cj_l]",
      "single_word": false,
      "lstrip": false,
      "rstrip": false,
      "normalized": false,
      "special": true
    },
    {
      "id": 745,
      "content": "[cj_m]",
      "single_word": false,
      "lstrip": false,
      "rstrip": false,
      "normalized": false,
      "special": true
    },
    {
      "id": 746,
      "content": "[cj_n]",
      "single_word": false,
      "lstrip": false,
      "rstrip": false,
      "normalized": false,
      "special": true
    },
    {
      "id": 747,
      "content": "[cj_o]",
      "single_word": false,
      "lstrip": false,
      "rstrip": false,
      "normalized": false,
      "special": true
    },
    {
      "id": 748,
      "content": "[cj_p]",
      "single_word": false,
      "lstrip": false,
      "rstrip": false,
      "normalized": false,
      "special": true
    },
    {
      "id": 749,
      "content": "[cj_q]",
      "single_word": false,
      "lstrip": false,
      "rstrip": false,
      "normalized": false,
      "special": true
    },
    {
      "id": 750,
      "content": "[cj_r]",
      "single_word": false,
      "lstrip": false,
      "rstrip": false,
      "normalized": false,
      "special": true
    },
    {
      "id": 751,
      "content": "[cj_s]",
      "single_word": false,
      "lstrip": false,
      "rstrip": false,
      "normalized": false,
      "special": true
    },
    {
      "id": 752,
      "content": "[cj_t]",
      "single_word": false,
      "lstrip": false,
      "rstrip": false,
      "normalized": false,
      "special": true
    },
    {
      "id": 753,
      "content": "[cj_u]",
      "single_word": false,
      "lstrip": false,
      "rstrip": false,
      "normalized": false,
      "special": true
    },
    {
      "id": 754,
      "content": "[cj_v]",
      "single_word": false,
      "lstrip": false,
      "rstrip": false,
      "normalized": false,
      "special": true
    },
    {
      "id": 755,
      "content": "[cj_w]",
      "single_word": false,
      "lstrip": false,
      "rstrip": false,
      "normalized": false,
      "special": true
    },
    {
      "id": 756,
      "content": "[cj_x]",
      "single_word": false,
      "lstrip": false,
      "rstrip": false,
      "normalized": false,
      "special": true
    },
    {
      "id": 757,
      "content": "[cj_y]",
      "single_word": false,
      "lstrip": false,
      "rstrip": false,
      "normalized": false,
      "special": true
    },
    {
      "id": 758,
      "content": "[cj_z]",
      "single_word": false,
      "lstrip": false,
      "rstrip": false,
      "normalized": false,
      "special": true
    },
    {
      "id": 759,
      "content": "[cj_0]",
      "single_word": false,
      "lstrip": false,
      "rstrip": false,
      "normalized": false,
      "special": true
    },
    {
      "id": 760,
      "content": "[cj_1]",
      "single_word": false,
      "lstrip": false,
      "rstrip": false,
      "normalized": false,
      "special": true
    },
    {
      "id": 761,
      "content": "[cj_2]",
      "single_word": false,
      "lstrip": false,
      "rstrip": false,
      "normalized": false,
      "special": true
    },
    {
      "id": 2052,
      "content": "[cj_3]",
      "single_word": false,
      "lstrip": false,
      "rstrip": false,
      "normalized": false,
      "special": true
    },
    {
      "id": 2053,
      "content": "[cj_4]",
      "single_word": false,
      "lstrip": false,
      "rstrip": false,
      "normalized": false,
      "special": true
    },
    {
      "id": 2059,
      "content": "[cj_5]",
      "single_word": false,
      "lstrip": false,
      "rstrip": false,
      "normalized": false,
      "special": true
    },
    {
      "id": 2060,
      "content": "[cj_6]",
      "single_word": false,
      "lstrip": false,
      "rstrip": false,
      "normalized": false,
      "special": true
    },
    {
      "id": 2061,
      "content": "[cj_7]",
      "single_word": false,
      "lstrip": false,
      "rstrip": false,
      "normalized": false,
      "special": true
    },
    {
      "id": 2062,
      "content": "[cj_8]",
      "single_word": false,
      "lstrip": false,
      "rstrip": false,
      "normalized": false,
      "special": true
    },
    {
      "id": 2063,
      "content": "[cj_9]",
      "single_word": false,
      "lstrip": false,
      "rstrip": false,
      "normalized": false,
      "special": true
    },
    {
      "id": 2064,
      "content": "[cj_.]",
      "single_word": false,
      "lstrip": false,
      "rstrip": false,
      "normalized": false,
      "special": true
    },
    {
      "id": 2065,
      "content": "[PLACEHOLDER45]",
      "single_word": false,
      "lstrip": false,
      "rstrip": false,
      "normalized": false,
      "special": true
    },
    {
      "id": 2107,
      "content": "[fi]",
      "single_word": false,
      "lstrip": false,
      "rstrip": false,
      "normalized": false,
      "special": false
    },
    {
      "id": 2108,
      "content": "[ta]",
      "single_word": false,
      "lstrip": false,
      "rstrip": false,
      "normalized": false,
      "special": false
    },
    {
      "id": 2109,
      "content": "[ms]",
      "single_word": false,
      "lstrip": false,
      "rstrip": false,
      "normalized": false,
      "special": false
    },
    {
      "id": 2110,
      "content": "[he]",
      "single_word": false,
      "lstrip": false,
      "rstrip": false,
      "normalized": false,
      "special": true
    },
    {
      "id": 2111,
      "special": true,
      "content": "[bn]",
      "single_word": false,
      "lstrip": false,
      "rstrip": false,
      "normalized": false
    }
  ],
  "normalizer": null,
  "pre_tokenizer": {
    "type": "Whitespace"
  },
  "post_processor": null,
  "decoder": null,
  "model": {
    "type": "BPE",
    "dropout": null,
    "unk_token": "[UNK]",
    "continuing_subword_prefix": null,
    "end_of_word_suffix": null,
    "fuse_unk": false,
    "vocab": {
      "[STOP]": 0,
      "[UNK]": 1,
      "[SPACE]": 2,
      "!": 3,
      "'": 4,
      "(": 5,
      ")": 6,
      ",": 7,
      "-": 8,
      ".": 9,
      "/": 10,
      ":": 11,
      ";": 12,
      "?": 13,
      "a": 14,
      "b": 15,
      "c": 16,
      "d": 17,
      "e": 18,
      "f": 19,
      "g": 20,
      "h": 21,
      "i": 22,
      "j": 23,
      "k": 24,
      "l": 25,
      "m": 26,
      "n": 27,
      "o": 28,
      "p": 29,
      "q": 30,
      "r": 31,
      "s": 32,
      "t": 33,
      "u": 34,
      "v": 35,
      "w": 36,
      "x": 37,
      "y": 38,
      "z": 39,
      "th": 40,
      "in": 41,
      "the": 42,
      "an": 43,
      "er": 44,
      "ou": 45,
      "re": 46,
      "on": 47,
      "at": 48,
      "ed": 49,
      "en": 50,
      "to": 51,
      "ing": 52,
      "and": 53,
      "is": 54,
      "as": 55,
      "al": 56,
      "or": 57,
      "of": 58,
      "ar": 59,
      "it": 60,
      "es": 61,
      "he": 62,
      "st": 63,
      "le": 64,
      "om": 65,
      "se": 66,
      "be": 67,
      "ad": 68,
      "ow": 69,
      "ly": 70,
      "ch": 71,
      "wh": 72,
      "that": 73,
      "you": 74,
      "li": 75,
      "ve": 76,
      "ac": 77,
      "ti": 78,
      "ld": 79,
      "me": 80,
      "was": 81,
      "gh": 82,
      "id": 83,
      "ll": 84,
      "wi": 85,
      "ent": 86,
      "for": 87,
      "ay": 88,
      "ro": 89,
      "ver": 90,
      "ic": 91,
      "her": 92,
      "ke": 93,
      "his": 94,
      "no": 95,
      "ut": 96,
      "un": 97,
      "ir": 98,
      "lo": 99,
      "we": 100,
      "ri": 101,
      "ha": 102,
      "with": 103,
      "ght": 104,
      "out": 105,
      "im": 106,
      "ion": 107,
      "all": 108,
      "ab": 109,
      "one": 110,
      "ne": 111,
      "ge": 112,
      "ould": 113,
      "ter": 114,
      "mo": 115,
      "had": 116,
      "ce": 117,
      "she": 118,
      "go": 119,
      "sh": 120,
      "ur": 121,
      "am": 122,
      "so": 123,
      "pe": 124,
      "my": 125,
      "de": 126,
      "are": 127,
      "but": 128,
      "ome": 129,
      "fr": 130,
      "ther": 131,
      "fe": 132,
      "su": 133,
      "do": 134,
      "con": 135,
      "te": 136,
      "ain": 137,
      "ere": 138,
      "po": 139,
      "if": 140,
      "they": 141,
      "us": 142,
      "ag": 143,
      "tr": 144,
      "now": 145,
      "oun": 146,
      "this": 147,
      "have": 148,
      "not": 149,
      "sa": 150,
      "il": 151,
      "up": 152,
      "thing": 153,
      "from": 154,
      "ap": 155,
      "him": 156,
      "ack": 157,
      "ation": 158,
      "ant": 159,
      "our": 160,
      "op": 161,
      "like": 162,
      "ust": 163,
      "ess": 164,
      "bo": 165,
      "ok": 166,
      "ul": 167,
      "ind": 168,
      "ex": 169,
      "com": 170,
      "some": 171,
      "there": 172,
      "ers": 173,
      "co": 174,
      "res": 175,
      "man": 176,
      "ard": 177,
      "pl": 178,
      "wor": 179,
      "way": 180,
      "tion": 181,
      "fo": 182,
      "ca": 183,
      "were": 184,
      "by": 185,
      "ate": 186,
      "pro": 187,
      "ted": 188,
      "ound": 189,
      "own": 190,
      "would": 191,
      "ts": 192,
      "what": 193,
      "qu": 194,
      "ally": 195,
      "ight": 196,
      "ck": 197,
      "gr": 198,
      "when": 199,
      "ven": 200,
      "can": 201,
      "ough": 202,
      "ine": 203,
      "end": 204,
      "per": 205,
      "ous": 206,
      "od": 207,
      "ide": 208,
      "know": 209,
      "ty": 210,
      "very": 211,
      "si": 212,
      "ak": 213,
      "who": 214,
      "about": 215,
      "ill": 216,
      "them": 217,
      "est": 218,
      "red": 219,
      "ye": 220,
      "could": 221,
      "ong": 222,
      "your": 223,
      "their": 224,
      "em": 225,
      "just": 226,
      "other": 227,
      "into": 228,
      "any": 229,
      "whi": 230,
      "um": 231,
      "tw": 232,
      "ast": 233,
      "der": 234,
      "did": 235,
      "ie": 236,
      "been": 237,
      "ace": 238,
      "ink": 239,
      "ity": 240,
      "back": 241,
      "ting": 242,
      "br": 243,
      "more": 244,
      "ake": 245,
      "pp": 246,
      "then": 247,
      "sp": 248,
      "el": 249,
      "use": 250,
      "bl": 251,
      "said": 252,
      "over": 253,
      "get": 254,
      "[START]": 255,
      "\"": 256,
      "#": 257,
      "$": 258,
      "%": 259,
      "&": 260,
      "*": 261,
      "+": 262,
      "0": 263,
      "1": 264,
      "2": 265,
      "3": 266,
      "4": 267,
      "5": 268,
      "6": 269,
      "7": 270,
      "8": 271,
      "9": 272,
      "<": 273,
      "=": 274,
      ">": 275,
      "@": 276,
      "A": 277,
      "B": 278,
      "C": 279,
      "D": 280,
      "E": 281,
      "F": 282,
      "G": 283,
      "H": 284,
      "I": 285,
      "J": 286,
      "K": 287,
      "L": 288,
      "M": 289,
      "N": 290,
      "O": 291,
      "P": 292,
      "Q": 293,
      "R": 294,
      "S": 295,
      "T": 296,
      "U": 297,
      "V": 298,
      "W": 299,
      "X": 300,
      "Y": 301,
      "Z": 302,
      "[": 303,
      "\\": 304,
      "]": 305,
      "^": 306,
      "_": 307,
      "`": 308,
      "{": 309,
      "|": 310,
      "}": 311,
      "~": 312,
      "‐": 313,
      "‑": 314,
      "‒": 315,
      "–": 316,
      "—": 317,
      "―": 318,
      "‖": 319,
      "‗": 320,
      "‘": 321,
      "’": 322,
      "‚": 323,
      "‛": 324,
      "“": 325,
      "”": 326,
      "„": 327,
      "‟": 328,
      " ": 329,
      "¡": 330,
      "¢": 331,
      "£": 332,
      "¤": 333,
      "¥": 334,
      "¦": 335,
      "§": 336,
      "¨": 337,
      "©": 338,
      "ª": 339,
      "«": 340,
      "¬": 341,
      "­": 342,
      "®": 343,
      "¯": 344,
      "°": 345,
      "±": 346,
      "²": 347,
      "³": 348,
      "´": 349,
      "µ": 350,
      "¶": 351,
      "·": 352,
      "¸": 353,
      "¹": 354,
      "º": 355,
      "»": 356,
      "¼": 357,
      "½": 358,
      "¾": 359,
      "¿": 360,
      "À": 361,
      "Á": 362,
      "Â": 363,
      "Ã": 364,
      "Ä": 365,
      "Å": 366,
      "Æ": 367,
      "Ç": 368,
      "È": 369,
      "É": 370,
      "Ê": 371,
      "Ë": 372,
      "Ì": 373,
      "Í": 374,
      "Î": 375,
      "Ï": 376,
      "Ð": 377,
      "Ñ": 378,
      "Ò": 379,
      "Ó": 380,
      "Ô": 381,
      "Õ": 382,
      "Ö": 383,
      "×": 384,
      "Ø": 385,
      "Ù": 386,
      "Ú": 387,
      "Û": 388,
      "Ü": 389,
      "Ý": 390,
      "Þ": 391,
      "ß": 392,
      "à": 393,
      "á": 394,
      "â": 395,
      "ã": 396,
      "ä": 397,
      "å": 398,
      "æ": 399,
      "ç": 400,
      "è": 401,
      "é": 402,
      "ê": 403,
      "ë": 404,
      "ì": 405,
      "í": 406,
      "î": 407,
      "ï": 408,
      "ð": 409,
      "ñ": 410,
      "ò": 411,
      "ó": 412,
      "ô": 413,
      "õ": 414,
      "ö": 415,
      "÷": 416,
      "ø": 417,
      "ù": 418,
      "ú": 419,
      "û": 420,
      "ü": 421,
      "ý": 422,
      "þ": 423,
      "ÿ": 424,
      "ɐ": 425,
      "ɑ": 426,
      "ɒ": 427,
      "ɓ": 428,
      "ɔ": 429,
      "ɕ": 430,
      "ɖ": 431,
      "ɗ": 432,
      "ɘ": 433,
      "ə": 434,
      "ɚ": 435,
      "ɛ": 436,
      "ɜ": 437,
      "ɝ": 438,
      "ɞ": 439,
      "ɟ": 440,
      "ɠ": 441,
      "ɡ": 442,
      "ɢ": 443,
      "ɣ": 444,
      "ɤ": 445,
      "ɥ": 446,
      "ɦ": 447,
      "ɧ": 448,
      "ɨ": 449,
      "ɩ": 450,
      "ɪ": 451,
      "ɫ": 452,
      "ɬ": 453,
      "ɭ": 454,
      "ɮ": 455,
      "ɯ": 456,
      "ɰ": 457,
      "ɱ": 458,
      "ɲ": 459,
      "ɳ": 460,
      "ɴ": 461,
      "ɵ": 462,
      "ɶ": 463,
      "ɷ": 464,
      "ɸ": 465,
      "ɹ": 466,
      "ɺ": 467,
      "ɻ": 468,
      "ɼ": 469,
      "ɽ": 470,
      "ɾ": 471,
      "ɿ": 472,
      "ʀ": 473,
      "ʁ": 474,
      "ʂ": 475,
      "ʃ": 476,
      "ʄ": 477,
      "ʅ": 478,
      "ʆ": 479,
      "ʇ": 480,
      "ʈ": 481,
      "ʉ": 482,
      "ʊ": 483,
      "ʋ": 484,
      "ʌ": 485,
      "ʍ": 486,
      "ʎ": 487,
      "ʏ": 488,
      "ʐ": 489,
      "ʑ": 490,
      "ʒ": 491,
      "ʓ": 492,
      "ʔ": 493,
      "ʕ": 494,
      "ʖ": 495,
      "ʗ": 496,
      "ʘ": 497,
      "ʙ": 498,
      "ʚ": 499,
      "ʛ": 500,
      "ʜ": 501,
      "ʝ": 502,
      "ʞ": 503,
      "ʟ": 504,
      "ʠ": 505,
      "ʡ": 506,
      "ʢ": 507,
      "ʣ": 508,
      "ʤ": 509,
      "ʥ": 510,
      "ʦ": 511,
      "ʧ": 512,
      "ʨ": 513,
      "ʩ": 514,
      "ʪ": 515,
      "ʫ": 516,
      "ʬ": 517,
      "ʭ": 518,
      "ʮ": 519,
      "ʯ": 520,
      "ʰ": 521,
      "ʱ": 522,
      "ʲ": 523,
      "ʳ": 524,
      "ʴ": 525,
      "ʵ": 526,
      "ʶ": 527,
      "ʷ": 528,
      "ʸ": 529,
      "ʹ": 530,
      "ʺ": 531,
      "ʻ": 532,
      "ʼ": 533,
      "ʽ": 534,
      "ʾ": 535,
      "ʿ": 536,
      "ˀ": 537,
      "ˁ": 538,
      "˂": 539,
      "˃": 540,
      "˄": 541,
      "˅": 542,
      "ˆ": 543,
      "ˇ": 544,
      "ˈ": 545,
      "ˉ": 546,
      "ˊ": 547,
      "ˋ": 548,
      "ˌ": 549,
      "ˍ": 550,
      "ˎ": 551,
      "ˏ": 552,
      "ː": 553,
      "ˑ": 554,
      "˒": 555,
      "˓": 556,
      "˔": 557,
      "˕": 558,
      "˖": 559,
      "˗": 560,
      "˘": 561,
      "˙": 562,
      "˚": 563,
      "˛": 564,
      "˜": 565,
      "˝": 566,
      "˞": 567,
      "˟": 568,
      "ˠ": 569,
      "ˡ": 570,
      "ˢ": 571,
      "ˣ": 572,
      "ˤ": 573,
      "˥": 574,
      "˦": 575,
      "˧": 576,
      "˨": 577,
      "˩": 578,
      "˪": 579,
      "˫": 580,
      "ˬ": 581,
      "˭": 582,
      "ˮ": 583,
      "˯": 584,
      "˰": 585,
      "˱": 586,
      "˲": 587,
      "˳": 588,
      "˴": 589,
      "˵": 590,
      "˶": 591,
      "˷": 592,
      "˸": 593,
      "˹": 594,
      "˺": 595,
      "˻": 596,
      "˼": 597,
      "˽": 598,
      "˾": 599,
      "˿": 600,
      "ā": 601,
      "ō": 602,
      "…": 603,
      "[UH]": 604,
      "[UM]": 605,
      "[giggle]": 606,
      "[laughter]": 607,
      "[guffaw]": 608,
      "[inhale]": 609,
      "[exhale]": 610,
      "[sigh]": 611,
      "[cry]": 612,
      "[bark]": 613,
      "[howl]": 614,
      "[meow]": 615,
      "[singing]": 616,
      "[music]": 617,
      "[whistle]": 618,
      "[humming]": 619,
      "[gasp]": 620,
      "[groan]": 621,
      "[whisper]": 622,
      "[mumble]": 623,
      "[sniff]": 624,
      "[sneeze]": 625,
      "[cough]": 626,
      "[snore]": 627,
      "[chew]": 628,
      "[sip]": 629,
      "[clear_throat]": 630,
      "[kiss]": 631,
      "[shhh]": 632,
      "[gibberish]": 633,
      "[fr]": 634,
      "[es]": 635,
      "[de]": 636,
      "[it]": 637,
      "[ipa]": 638,
      "[end_of_label]": 639,
      "ŋ": 640,
      "ᵻ": 641,
      "θ": 642,
      "̩": 643,
      "̃": 644,
      "ɑː": 645,
      "iː": 646,
      "uː": 647,
      "ɜː": 648,
      "ɔː": 649,
      "oː": 650,
      "eɪ": 651,
      "oʊ": 652,
      "aɪ": 653,
      "aʊ": 654,
      "ɔɪ": 655,
      "dʒ": 656,
      "tʃ": 657,
      "ɪŋ": 658,
      "ᵻd": 659,
      "ˈiː": 660,
      "ˌiː": 661,
      "ˈɪ": 662,
      "ˌɪ": 663,
      "ˈeɪ": 664,
      "ˌeɪ": 665,
      "ˈɛ": 666,
      "ˌɛ": 667,
      "ˈæ": 668,
      "ˌæ": 669,
      "ˈɑː": 670,
      "ˌɑː": 671,
      "ˈɔː": 672,
      "ˌɔː": 673,
      "oːɹ": 674,
      "ˈoːɹ": 675,
      "ˌoːɹ": 676,
      "ˈoʊ": 677,
      "ˌoʊ": 678,
      "ˈʊ": 679,
      "ˌʊ": 680,
      "ˈuː": 681,
      "ˌuː": 682,
      "ˈɜː": 683,
      "ˌɜː": 684,
      "ˈʌ": 685,
      "ˌʌ": 686,
      "ˈaɪ": 687,
      "ˌaɪ": 688,
      "ˈaʊ": 689,
      "ˌaʊ": 690,
      "ˈɔɪ": 691,
      "ˌɔɪ": 692,
      "ˈɚ": 693,
      "ˌɐ": 694,
      "[PLACEHOLDER55]": 695,
      "[PLACEHOLDER56]": 696,
      "[PLACEHOLDER57]": 697,
      "[PLACEHOLDER58]": 698,
      "[PLACEHOLDER59]": 699,
      "[PLACEHOLDER60]": 700,
      "[PLACEHOLDER61]": 701,
      "[PLACEHOLDER62]": 702,
      "[PLACEHOLDER63]": 703,
      "[MASK]": 704,
      "[PAD]": 705,
      "[SEP]": 706,
      "[CLS]": 707,
      "[en]": 708,
      "[nl]": 709,
      "[pt]": 710,
      "[el]": 711,
      "[tr]": 712,
      "[sv]": 713,
      "[no]": 714,
      "[da]": 715,
      "[ru]": 716,
      "[pl]": 717,
      "[sk]": 718,
      "[cs]": 719,
      "[hu]": 720,
      "[ar]": 721,
      "[hi]": 722,
      "[ja]": 723,
      "[ko]": 724,
      "[zh]": 725,
      "[ro]": 726,
      "[bg]": 727,
      " ": 728,
      "[ea]": 729,
      "[sw]": 730,
      "─": 731,
      "[vi]": 732,
      "[cj_a]": 733,
      "[cj_b]": 734,
      "[cj_c]": 735,
      "[cj_d]": 736,
      "[cj_e]": 737,
      "[cj_f]": 738,
      "[cj_g]": 739,
      "[cj_h]": 740,
      "[cj_i]": 741,
      "[cj_j]": 742,
      "[cj_k]": 743,
      "[cj_l]": 744,
      "[cj_m]": 745,
      "[cj_n]": 746,
      "[cj_o]": 747,
      "[cj_p]": 748,
      "[cj_q]": 749,
      "[cj_r]": 750,
      "[cj_s]": 751,
      "[cj_t]": 752,
      "[cj_u]": 753,
      "[cj_v]": 754,
      "[cj_w]": 755,
      "[cj_x]": 756,
      "[cj_y]": 757,
      "[cj_z]": 758,
      "[cj_0]": 759,
      "[cj_1]": 760,
      "[cj_2]": 761,
      "̈": 762,
      "̄": 763,
      "́": 764,
      "μ": 765,
      "̧": 766,
      "⁄": 767,
      "̀": 768,
      "̂": 769,
      "̊": 770,
      "̆": 771,
      "̨": 772,
      "̇": 773,
      "̌": 774,
      "Đ": 775,
      "đ": 776,
      "Ħ": 777,
      "ħ": 778,
      "ı": 779,
      "ĸ": 780,
      "Ł": 781,
      "ł": 782,
      "Ŋ": 783,
      "̋": 784,
      "Œ": 785,
      "œ": 786,
      "Ŧ": 787,
      "ŧ": 788,
      "ƀ": 789,
      "Ɓ": 790,
      "Ƃ": 791,
      "ƃ": 792,
      "Ƅ": 793,
      "ƅ": 794,
      "Ɔ": 795,
      "Ƈ": 796,
      "ƈ": 797,
      "Ɖ": 798,
      "Ɗ": 799,
      "Ƌ": 800,
      "ƌ": 801,
      "ƍ": 802,
      "Ǝ": 803,
      "Ə": 804,
      "Ɛ": 805,
      "Ƒ": 806,
      "ƒ": 807,
      "Ɠ": 808,
      "Ɣ": 809,
      "ƕ": 810,
      "Ɩ": 811,
      "Ɨ": 812,
      "Ƙ": 813,
      "ƙ": 814,
      "ƚ": 815,
      "ƛ": 816,
      "Ɯ": 817,
      "Ɲ": 818,
      "ƞ": 819,
      "Ɵ": 820,
      "̛": 821,
      "Ƣ": 822,
      "ƣ": 823,
      "Ƥ": 824,
      "ƥ": 825,
      "Ʀ": 826,
      "Ƨ": 827,
      "ƨ": 828,
      "Ʃ": 829,
      "ƪ": 830,
      "ƫ": 831,
      "Ƭ": 832,
      "ƭ": 833,
      "Ʈ": 834,
      "Ʊ": 835,
      "Ʋ": 836,
      "Ƴ": 837,
      "ƴ": 838,
      "Ƶ": 839,
      "ƶ": 840,
      "Ʒ": 841,
      "Ƹ": 842,
      "ƹ": 843,
      "ƺ": 844,
      "ƻ": 845,
      "Ƽ": 846,
      "ƽ": 847,
      "ƾ": 848,
      "ƿ": 849,
      "ǀ": 850,
      "ǁ": 851,
      "ǂ": 852,
      "ǃ": 853,
      "ǝ": 854,
      "Ǥ": 855,
      "ǥ": 856,
      "Ƕ": 857,
      "Ƿ": 858,
      "̏": 859,
      "̑": 860,
      "̦": 861,
      "Ȝ": 862,
      "ȝ": 863,
      "Ƞ": 864,
      "ȡ": 865,
      "Ȣ": 866,
      "ȣ": 867,
      "Ȥ": 868,
      "ȥ": 869,
      "ȴ": 870,
      "ȵ": 871,
      "ȶ": 872,
      "ȷ": 873,
      "ȸ": 874,
      "ȹ": 875,
      "Ⱥ": 876,
      "Ȼ": 877,
      "ȼ": 878,
      "Ƚ": 879,
      "Ⱦ": 880,
      "ȿ": 881,
      "ɀ": 882,
      "Ɂ": 883,
      "ɂ": 884,
      "Ƀ": 885,
      "Ʉ": 886,
      "Ʌ": 887,
      "Ɇ": 888,
      "ɇ": 889,
      "Ɉ": 890,
      "ɉ": 891,
      "Ɋ": 892,
      "ɋ": 893,
      "Ɍ": 894,
      "ɍ": 895,
      "Ɏ": 896,
      "ɏ": 897,
      "̅": 898,
      "̉": 899,
      "̍": 900,
      "̎": 901,
      "̐": 902,
      "̒": 903,
      "̓": 904,
      "̔": 905,
      "̕": 906,
      "̖": 907,
      "̗": 908,
      "̘": 909,
      "̙": 910,
      "̚": 911,
      "̜": 912,
      "̝": 913,
      "̞": 914,
      "̟": 915,
      "̠": 916,
      "̡": 917,
      "̢": 918,
      "̣": 919,
      "̤": 920,
      "̥": 921,
      "̪": 922,
      "̫": 923,
      "̬": 924,
      "̭": 925,
      "̮": 926,
      "̯": 927,
      "̰": 928,
      "̱": 929,
      "̲": 930,
      "̳": 931,
      "̴": 932,
      "̵": 933,
      "̶": 934,
      "̷": 935,
      "̸": 936,
      "̹": 937,
      "̺": 938,
      "̻": 939,
      "̼": 940,
      "̽": 941,
      "̾": 942,
      "̿": 943,
      "͂": 944,
      "ͅ": 945,
      "͆": 946,
      "͇": 947,
      "͈": 948,
      "͉": 949,
      "͊": 950,
      "͋": 951,
      "͌": 952,
      "͍": 953,
      "͎": 954,
      "͏": 955,
      "͐": 956,
      "͑": 957,
      "͒": 958,
      "͓": 959,
      "͔": 960,
      "͕": 961,
      "͖": 962,
      "͗": 963,
      "͘": 964,
      "͙": 965,
      "͚": 966,
      "͛": 967,
      "͜": 968,
      "͝": 969,
      "͞": 970,
      "͟": 971,
      "͠": 972,
      "͡": 973,
      "͢": 974,
      "ͣ": 975,
      "ͤ": 976,
      "ͥ": 977,
      "ͦ": 978,
      "ͧ": 979,
      "ͨ": 980,
      "ͩ": 981,
      "ͪ": 982,
      "ͫ": 983,
      "ͬ": 984,
      "ͭ": 985,
      "ͮ": 986,
      "ͯ": 987,
      "Ͱ": 988,
      "ͱ": 989,
      "Ͳ": 990,
      "ͳ": 991,
      "͵": 992,
      "Ͷ": 993,
      "ͷ": 994,
      "ͻ": 995,
      "ͼ": 996,
      "ͽ": 997,
      "Ϳ": 998,
      "Α": 999,
      "Ε": 1000,
      "Η": 1001,
      "Ι": 1002,
      "Ο": 1003,
      "Υ": 1004,
      "Ω": 1005,
      "ι": 1006,
      "Β": 1007,
      "Γ": 1008,
      "Δ": 1009,
      "Ζ": 1010,
      "Θ": 1011,
      "Κ": 1012,
      "Λ": 1013,
      "Μ": 1014,
      "Ν": 1015,
      "Ξ": 1016,
      "Π": 1017,
      "Ρ": 1018,
      "Σ": 1019,
      "Τ": 1020,
      "Φ": 1021,
      "Χ": 1022,
      "Ψ": 1023,
      "α": 1024,
      "ε": 1025,
      "η": 1026,
      "υ": 1027,
      "β": 1028,
      "γ": 1029,
      "δ": 1030,
      "ζ": 1031,
      "κ": 1032,
      "λ": 1033,
      "ν": 1034,
      "ξ": 1035,
      "ο": 1036,
      "π": 1037,
      "ρ": 1038,
      "ς": 1039,
      "σ": 1040,
      "τ": 1041,
      "φ": 1042,
      "χ": 1043,
      "ψ": 1044,
      "ω": 1045,
      "Ϗ": 1046,
      "ϗ": 1047,
      "Ϙ": 1048,
      "ϙ": 1049,
      "Ϛ": 1050,
      "ϛ": 1051,
      "Ϝ": 1052,
      "ϝ": 1053,
      "Ϟ": 1054,
      "ϟ": 1055,
      "Ϡ": 1056,
      "ϡ": 1057,
      "Ϣ": 1058,
      "ϣ": 1059,
      "Ϥ": 1060,
      "ϥ": 1061,
      "Ϧ": 1062,
      "ϧ": 1063,
      "Ϩ": 1064,
      "ϩ": 1065,
      "Ϫ": 1066,
      "ϫ": 1067,
      "Ϭ": 1068,
      "ϭ": 1069,
      "Ϯ": 1070,
      "ϯ": 1071,
      "ϳ": 1072,
      "϶": 1073,
      "Ϸ": 1074,
      "ϸ": 1075,
      "Ϻ": 1076,
      "ϻ": 1077,
      "ϼ": 1078,
      "Ͻ": 1079,
      "Ͼ": 1080,
      "Ͽ": 1081,
      "Е": 1082,
      "Ђ": 1083,
      "Г": 1084,
      "Є": 1085,
      "Ѕ": 1086,
      "І": 1087,
      "Ј": 1088,
      "Љ": 1089,
      "Њ": 1090,
      "Ћ": 1091,
      "К": 1092,
      "И": 1093,
      "У": 1094,
      "Џ": 1095,
      "А": 1096,
      "Б": 1097,
      "В": 1098,
      "Д": 1099,
      "Ж": 1100,
      "З": 1101,
      "Л": 1102,
      "М": 1103,
      "Н": 1104,
      "О": 1105,
      "П": 1106,
      "Р": 1107,
      "С": 1108,
      "Т": 1109,
      "Ф": 1110,
      "Х": 1111,
      "Ц": 1112,
      "Ч": 1113,
      "Ш": 1114,
      "Щ": 1115,
      "Ъ": 1116,
      "Ы": 1117,
      "Ь": 1118,
      "Э": 1119,
      "Ю": 1120,
      "Я": 1121,
      "а": 1122,
      "б": 1123,
      "в": 1124,
      "г": 1125,
      "д": 1126,
      "е": 1127,
      "ж": 1128,
      "з": 1129,
      "и": 1130,
      "к": 1131,
      "л": 1132,
      "м": 1133,
      "н": 1134,
      "о": 1135,
      "п": 1136,
      "р": 1137,
      "с": 1138,
      "т": 1139,
      "у": 1140,
      "ф": 1141,
      "х": 1142,
      "ц": 1143,
      "ч": 1144,
      "ш": 1145,
      "щ": 1146,
      "ъ": 1147,
      "ы": 1148,
      "ь": 1149,
      "э": 1150,
      "ю": 1151,
      "я": 1152,
      "ђ": 1153,
      "є": 1154,
      "ѕ": 1155,
      "і": 1156,
      "ј": 1157,
      "љ": 1158,
      "њ": 1159,
      "ћ": 1160,
      "џ": 1161,
      "Ѡ": 1162,
      "ѡ": 1163,
      "Ѣ": 1164,
      "ѣ": 1165,
      "Ѥ": 1166,
      "ѥ": 1167,
      "Ѧ": 1168,
      "ѧ": 1169,
      "Ѩ": 1170,
      "ѩ": 1171,
      "Ѫ": 1172,
      "ѫ": 1173,
      "Ѭ": 1174,
      "ѭ": 1175,
      "Ѯ": 1176,
      "ѯ": 1177,
      "Ѱ": 1178,
      "ѱ": 1179,
      "Ѳ": 1180,
      "ѳ": 1181,
      "Ѵ": 1182,
      "ѵ": 1183,
      "Ѹ": 1184,
      "ѹ": 1185,
      "Ѻ": 1186,
      "ѻ": 1187,
      "Ѽ": 1188,
      "ѽ": 1189,
      "Ѿ": 1190,
      "ѿ": 1191,
      "Ҁ": 1192,
      "ҁ": 1193,
      "҂": 1194,
      "҃": 1195,
      "҄": 1196,
      "҅": 1197,
      "҆": 1198,
      "҇": 1199,
      "҈": 1200,
      "҉": 1201,
      "Ҋ": 1202,
      "ҋ": 1203,
      "Ҍ": 1204,
      "ҍ": 1205,
      "Ҏ": 1206,
      "ҏ": 1207,
      "Ґ": 1208,
      "ґ": 1209,
      "Ғ": 1210,
      "ғ": 1211,
      "Ҕ": 1212,
      "ҕ": 1213,
      "Җ": 1214,
      "җ": 1215,
      "Ҙ": 1216,
      "ҙ": 1217,
      "Қ": 1218,
      "қ": 1219,
      "Ҝ": 1220,
      "ҝ": 1221,
      "Ҟ": 1222,
      "ҟ": 1223,
      "Ҡ": 1224,
      "ҡ": 1225,
      "Ң": 1226,
      "ң": 1227,
      "Ҥ": 1228,
      "ҥ": 1229,
      "Ҧ": 1230,
      "ҧ": 1231,
      "Ҩ": 1232,
      "ҩ": 1233,
      "Ҫ": 1234,
      "ҫ": 1235,
      "Ҭ": 1236,
      "ҭ": 1237,
      "Ү": 1238,
      "ү": 1239,
      "Ұ": 1240,
      "ұ": 1241,
      "Ҳ": 1242,
      "ҳ": 1243,
      "Ҵ": 1244,
      "ҵ": 1245,
      "Ҷ": 1246,
      "ҷ": 1247,
      "Ҹ": 1248,
      "ҹ": 1249,
      "Һ": 1250,
      "һ": 1251,
      "Ҽ": 1252,
      "ҽ": 1253,
      "Ҿ": 1254,
      "ҿ": 1255,
      "Ӏ": 1256,
      "Ӄ": 1257,
      "ӄ": 1258,
      "Ӆ": 1259,
      "ӆ": 1260,
      "Ӈ": 1261,
      "ӈ": 1262,
      "Ӊ": 1263,
      "ӊ": 1264,
      "Ӌ": 1265,
      "ӌ": 1266,
      "Ӎ": 1267,
      "ӎ": 1268,
      "ӏ": 1269,
      "Ӕ": 1270,
      "ӕ": 1271,
      "Ә": 1272,
      "ә": 1273,
      "Ӡ": 1274,
      "ӡ": 1275,
      "Ө": 1276,
      "ө": 1277,
      "Ӷ": 1278,
      "ӷ": 1279,
      "Ӻ": 1280,
      "ӻ": 1281,
      "Ӽ": 1282,
      "ӽ": 1283,
      "Ӿ": 1284,
      "ӿ": 1285,
      "Ԁ": 1286,
      "ԁ": 1287,
      "Ԃ": 1288,
      "ԃ": 1289,
      "Ԅ": 1290,
      "ԅ": 1291,
      "Ԇ": 1292,
      "ԇ": 1293,
      "Ԉ": 1294,
      "ԉ": 1295,
      "Ԋ": 1296,
      "ԋ": 1297,
      "Ԍ": 1298,
      "ԍ": 1299,
      "Ԏ": 1300,
      "ԏ": 1301,
      "Ԑ": 1302,
      "ԑ": 1303,
      "Ԓ": 1304,
      "ԓ": 1305,
      "Ԕ": 1306,
      "ԕ": 1307,
      "Ԗ": 1308,
      "ԗ": 1309,
      "Ԙ": 1310,
      "ԙ": 1311,
      "Ԛ": 1312,
      "ԛ": 1313,
      "Ԝ": 1314,
      "ԝ": 1315,
      "Ԟ": 1316,
      "ԟ": 1317,
      "Ԡ": 1318,
      "ԡ": 1319,
      "Ԣ": 1320,
      "ԣ": 1321,
      "Ԥ": 1322,
      "ԥ": 1323,
      "Ԧ": 1324,
      "ԧ": 1325,
      "Ԩ": 1326,
      "ԩ": 1327,
      "Ԫ": 1328,
      "ԫ": 1329,
      "Ԭ": 1330,
      "ԭ": 1331,
      "Ԯ": 1332,
      "ԯ": 1333,
      "֑": 1334,
      "֒": 1335,
      "֓": 1336,
      "֔": 1337,
      "֕": 1338,
      "֖": 1339,
      "֗": 1340,
      "֘": 1341,
      "֙": 1342,
      "֚": 1343,
      "֛": 1344,
      "֜": 1345,
      "֝": 1346,
      "֞": 1347,
      "֟": 1348,
      "֠": 1349,
      "֡": 1350,
      "֢": 1351,
      "֣": 1352,
      "֤": 1353,
      "֥": 1354,
      "֦": 1355,
      "֧": 1356,
      "֨": 1357,
      "֩": 1358,
      "֪": 1359,
      "֫": 1360,
      "֬": 1361,
      "֭": 1362,
      "֮": 1363,
      "֯": 1364,
      "ְ": 1365,
      "ֱ": 1366,
      "ֲ": 1367,
      "ֳ": 1368,
      "ִ": 1369,
      "ֵ": 1370,
      "ֶ": 1371,
      "ַ": 1372,
      "ָ": 1373,
      "ֹ": 1374,
      "ֺ": 1375,
      "ֻ": 1376,
      "ּ": 1377,
      "ֽ": 1378,
      "־": 1379,
      "ֿ": 1380,
      "׀": 1381,
      "ׁ": 1382,
      "ׂ": 1383,
      "׃": 1384,
      "ׄ": 1385,
      "ׅ": 1386,
      "׆": 1387,
      "ׇ": 1388,
      "א": 1389,
      "ב": 1390,
      "ג": 1391,
      "ד": 1392,
      "ה": 1393,
      "ו": 1394,
      "ז": 1395,
      "ח": 1396,
      "ט": 1397,
      "י": 1398,
      "ך": 1399,
      "כ": 1400,
      "ל": 1401,
      "ם": 1402,
      "מ": 1403,
      "ן": 1404,
      "נ": 1405,
      "ס": 1406,
      "ע": 1407,
      "ף": 1408,
      "פ": 1409,
      "ץ": 1410,
      "צ": 1411,
      "ק": 1412,
      "ר": 1413,
      "ש": 1414,
      "ת": 1415,
      "ׯ": 1416,
      "װ": 1417,
      "ױ": 1418,
      "ײ": 1419,
      "׳": 1420,
      "״": 1421,
      "؀": 1422,
      "؁": 1423,
      "؂": 1424,
      "؃": 1425,
      "؄": 1426,
      "؅": 1427,
      "؆": 1428,
      "؇": 1429,
      "؈": 1430,
      "؉": 1431,
      "؊": 1432,
      "؋": 1433,
      "،": 1434,
      "؍": 1435,
      "؎": 1436,
      "؏": 1437,
      "ؐ": 1438,
      "ؑ": 1439,
      "ؒ": 1440,
      "ؓ": 1441,
      "ؔ": 1442,
      "ؕ": 1443,
      "ؖ": 1444,
      "ؗ": 1445,
      "ؘ": 1446,
      "ؙ": 1447,
      "ؚ": 1448,
      "؛": 1449,
      "؜": 1450,
      "؝": 1451,
      "؞": 1452,
      "؟": 1453,
      "ؠ": 1454,
      "ء": 1455,
      "ا": 1456,
      "ٓ": 1457,
      "ٔ": 1458,
      "و": 1459,
      "ٕ": 1460,
      "ي": 1461,
      "ب": 1462,
      "ة": 1463,
      "ت": 1464,
      "ث": 1465,
      "ج": 1466,
      "ح": 1467,
      "خ": 1468,
      "د": 1469,
      "ذ": 1470,
      "ر": 1471,
      "ز": 1472,
      "س": 1473,
      "ش": 1474,
      "ص": 1475,
      "ض": 1476,
      "ط": 1477,
      "ظ": 1478,
      "ع": 1479,
      "غ": 1480,
      "ػ": 1481,
      "ؼ": 1482,
      "ؽ": 1483,
      "ؾ": 1484,
      "ؿ": 1485,
      "ـ": 1486,
      "ف": 1487,
      "ق": 1488,
      "ك": 1489,
      "ل": 1490,
      "م": 1491,
      "ن": 1492,
      "ه": 1493,
      "ى": 1494,
      "ً": 1495,
      "ٌ": 1496,
      "ٍ": 1497,
      "َ": 1498,
      "ُ": 1499,
      "ِ": 1500,
      "ّ": 1501,
      "ْ": 1502,
      "ٖ": 1503,
      "ٗ": 1504,
      "٘": 1505,
      "ٙ": 1506,
      "ٚ": 1507,
      "ٛ": 1508,
      "ٜ": 1509,
      "ٝ": 1510,
      "ٞ": 1511,
      "ٟ": 1512,
      "٠": 1513,
      "١": 1514,
      "٢": 1515,
      "٣": 1516,
      "٤": 1517,
      "٥": 1518,
      "٦": 1519,
      "٧": 1520,
      "٨": 1521,
      "٩": 1522,
      "٪": 1523,
      "٫": 1524,
      "٬": 1525,
      "٭": 1526,
      "ٮ": 1527,
      "ٯ": 1528,
      "ٰ": 1529,
      "ٱ": 1530,
      "ٲ": 1531,
      "ٳ": 1532,
      "ٴ": 1533,
      "ۇ": 1534,
      "ٹ": 1535,
      "ٺ": 1536,
      "ٻ": 1537,
      "ټ": 1538,
      "ٽ": 1539,
      "پ": 1540,
      "ٿ": 1541,
      "ڀ": 1542,
      "ځ": 1543,
      "ڂ": 1544,
      "ڃ": 1545,
      "ڄ": 1546,
      "څ": 1547,
      "چ": 1548,
      "ڇ": 1549,
      "ڈ": 1550,
      "ډ": 1551,
      "ڊ": 1552,
      "ڋ": 1553,
      "ڌ": 1554,
      "ڍ": 1555,
      "ڎ": 1556,
      "ڏ": 1557,
      "ڐ": 1558,
      "ڑ": 1559,
      "ڒ": 1560,
      "ړ": 1561,
      "ڔ": 1562,
      "ڕ": 1563,
      "ږ": 1564,
      "ڗ": 1565,
      "ژ": 1566,
      "ڙ": 1567,
      "ښ": 1568,
      "ڛ": 1569,
      "ڜ": 1570,
      "ڝ": 1571,
      "ڞ": 1572,
      "ڟ": 1573,
      "ڠ": 1574,
      "ڡ": 1575,
      "ڢ": 1576,
      "ڣ": 1577,
      "ڤ": 1578,
      "ڥ": 1579,
      "ڦ": 1580,
      "ڧ": 1581,
      "ڨ": 1582,
      "ک": 1583,
      "ڪ": 1584,
      "ګ": 1585,
      "ڬ": 1586,
      "ڭ": 1587,
      "ڮ": 1588,
      "گ": 1589,
      "ڰ": 1590,
      "ڱ": 1591,
      "ڲ": 1592,
      "ڳ": 1593,
      "ڴ": 1594,
      "ڵ": 1595,
      "ڶ": 1596,
      "ڷ": 1597,
      "ڸ": 1598,
      "ڹ": 1599,
      "ں": 1600,
      "ڻ": 1601,
      "ڼ": 1602,
      "ڽ": 1603,
      "ھ": 1604,
      "ڿ": 1605,
      "ە": 1606,
      "ہ": 1607,
      "ۃ": 1608,
      "ۄ": 1609,
      "ۅ": 1610,
      "ۆ": 1611,
      "ۈ": 1612,
      "ۉ": 1613,
      "ۊ": 1614,
      "ۋ": 1615,
      "ی": 1616,
      "ۍ": 1617,
      "ێ": 1618,
      "ۏ": 1619,
      "ې": 1620,
      "ۑ": 1621,
      "ے": 1622,
      "۔": 1623,
      "ۖ": 1624,
      "ۗ": 1625,
      "ۘ": 1626,
      "ۙ": 1627,
      "ۚ": 1628,
      "ۛ": 1629,
      "ۜ": 1630,
      "۝": 1631,
      "۞": 1632,
      "۟": 1633,
      "۠": 1634,
      "ۡ": 1635,
      "ۢ": 1636,
      "ۣ": 1637,
      "ۤ": 1638,
      "ۥ": 1639,
      "ۦ": 1640,
      "ۧ": 1641,
      "ۨ": 1642,
      "۩": 1643,
      "۪": 1644,
      "۫": 1645,
      "۬": 1646,
      "ۭ": 1647,
      "ۮ": 1648,
      "ۯ": 1649,
      "۰": 1650,
      "۱": 1651,
      "۲": 1652,
      "۳": 1653,
      "۴": 1654,
      "۵": 1655,
      "۶": 1656,
      "۷": 1657,
      "۸": 1658,
      "۹": 1659,
      "ۺ": 1660,
      "ۻ": 1661,
      "ۼ": 1662,
      "۽": 1663,
      "۾": 1664,
      "ۿ": 1665,
      "ऀ": 1666,
      "ँ": 1667,
      "ं": 1668,
      "ः": 1669,
      "ऄ": 1670,
      "अ": 1671,
      "आ": 1672,
      "इ": 1673,
      "ई": 1674,
      "उ": 1675,
      "ऊ": 1676,
      "ऋ": 1677,
      "ऌ": 1678,
      "ऍ": 1679,
      "ऎ": 1680,
      "ए": 1681,
      "ऐ": 1682,
      "ऑ": 1683,
      "ऒ": 1684,
      "ओ": 1685,
      "औ": 1686,
      "क": 1687,
      "ख": 1688,
      "ग": 1689,
      "घ": 1690,
      "ङ": 1691,
      "च": 1692,
      "छ": 1693,
      "ज": 1694,
      "झ": 1695,
      "ञ": 1696,
      "ट": 1697,
      "ठ": 1698,
      "ड": 1699,
      "ढ": 1700,
      "ण": 1701,
      "त": 1702,
      "थ": 1703,
      "द": 1704,
      "ध": 1705,
      "न": 1706,
      "़": 1707,
      "प": 1708,
      "फ": 1709,
      "ब": 1710,
      "भ": 1711,
      "म": 1712,
      "य": 1713,
      "र": 1714,
      "ल": 1715,
      "ळ": 1716,
      "व": 1717,
      "श": 1718,
      "ष": 1719,
      "स": 1720,
      "ह": 1721,
      "ऺ": 1722,
      "ऻ": 1723,
      "ऽ": 1724,
      "ा": 1725,
      "ि": 1726,
      "ी": 1727,
      "ु": 1728,
      "ू": 1729,
      "ृ": 1730,
      "ॄ": 1731,
      "ॅ": 1732,
      "ॆ": 1733,
      "े": 1734,
      "ै": 1735,
      "ॉ": 1736,
      "ॊ": 1737,
      "ो": 1738,
      "ौ": 1739,
      "्": 1740,
      "ॎ": 1741,
      "ॏ": 1742,
      "ॐ": 1743,
      "॑": 1744,
      "॒": 1745,
      "॓": 1746,
      "॔": 1747,
      "ॕ": 1748,
      "ॖ": 1749,
      "ॗ": 1750,
      "ॠ": 1751,
      "ॡ": 1752,
      "ॢ": 1753,
      "ॣ": 1754,
      "।": 1755,
      "॥": 1756,
      "०": 1757,
      "१": 1758,
      "२": 1759,
      "३": 1760,
      "४": 1761,
      "५": 1762,
      "६": 1763,
      "७": 1764,
      "८": 1765,
      "९": 1766,
      "॰": 1767,
      "ॱ": 1768,
      "ॲ": 1769,
      "ॳ": 1770,
      "ॴ": 1771,
      "ॵ": 1772,
      "ॶ": 1773,
      "ॷ": 1774,
      "ॸ": 1775,
      "ॹ": 1776,
      "ॺ": 1777,
      "ॻ": 1778,
      "ॼ": 1779,
      "ॽ": 1780,
      "ॾ": 1781,
      "ॿ": 1782,
      "ᄀ": 1783,
      "ᄁ": 1784,
      "ᄂ": 1785,
      "ᄃ": 1786,
      "ᄄ": 1787,
      "ᄅ": 1788,
      "ᄆ": 1789,
      "ᄇ": 1790,
      "ᄈ": 1791,
      "ᄉ": 1792,
      "ᄊ": 1793,
      "ᄋ": 1794,
      "ᄌ": 1795,
      "ᄍ": 1796,
      "ᄎ": 1797,
      "ᄏ": 1798,
      "ᄐ": 1799,
      "ᄑ": 1800,
      "ᄒ": 1801,
      "ᄓ": 1802,
      "ᄔ": 1803,
      "ᄕ": 1804,
      "ᄖ": 1805,
      "ᄗ": 1806,
      "ᄘ": 1807,
      "ᄙ": 1808,
      "ᄚ": 1809,
      "ᄛ": 1810,
      "ᄜ": 1811,
      "ᄝ": 1812,
      "ᄞ": 1813,
      "ᄟ": 1814,
      "ᄠ": 1815,
      "ᄡ": 1816,
      "ᄢ": 1817,
      "ᄣ": 1818,
      "ᄤ": 1819,
      "ᄥ": 1820,
      "ᄦ": 1821,
      "ᄧ": 1822,
      "ᄨ": 1823,
      "ᄩ": 1824,
      "ᄪ": 1825,
      "ᄫ": 1826,
      "ᄬ": 1827,
      "ᄭ": 1828,
      "ᄮ": 1829,
      "ᄯ": 1830,
      "ᄰ": 1831,
      "ᄱ": 1832,
      "ᄲ": 1833,
      "ᄳ": 1834,
      "ᄴ": 1835,
      "ᄵ": 1836,
      "ᄶ": 1837,
      "ᄷ": 1838,
      "ᄸ": 1839,
      "ᄹ": 1840,
      "ᄺ": 1841,
      "ᄻ": 1842,
      "ᄼ": 1843,
      "ᄽ": 1844,
      "ᄾ": 1845,
      "ᄿ": 1846,
      "ᅀ": 1847,
      "ᅁ": 1848,
      "ᅂ": 1849,
      "ᅃ": 1850,
      "ᅄ": 1851,
      "ᅅ": 1852,
      "ᅆ": 1853,
      "ᅇ": 1854,
      "ᅈ": 1855,
      "ᅉ": 1856,
      "ᅊ": 1857,
      "ᅋ": 1858,
      "ᅌ": 1859,
      "ᅍ": 1860,
      "ᅎ": 1861,
      "ᅏ": 1862,
      "ᅐ": 1863,
      "ᅑ": 1864,
      "ᅒ": 1865,
      "ᅓ": 1866,
      "ᅔ": 1867,
      "ᅕ": 1868,
      "ᅖ": 1869,
      "ᅗ": 1870,
      "ᅘ": 1871,
      "ᅙ": 1872,
      "ᅚ": 1873,
      "ᅛ": 1874,
      "ᅜ": 1875,
      "ᅝ": 1876,
      "ᅞ": 1877,
      "ᅟ": 1878,
      "ᅠ": 1879,
      "ᅡ": 1880,
      "ᅢ": 1881,
      "ᅣ": 1882,
      "ᅤ": 1883,
      "ᅥ": 1884,
      "ᅦ": 1885,
      "ᅧ": 1886,
      "ᅨ": 1887,
      "ᅩ": 1888,
      "ᅪ": 1889,
      "ᅫ": 1890,
      "ᅬ": 1891,
      "ᅭ": 1892,
      "ᅮ": 1893,
      "ᅯ": 1894,
      "ᅰ": 1895,
      "ᅱ": 1896,
      "ᅲ": 1897,
      "ᅳ": 1898,
      "ᅴ": 1899,
      "ᅵ": 1900,
      "ᅶ": 1901,
      "ᅷ": 1902,
      "ᅸ": 1903,
      "ᅹ": 1904,
      "ᅺ": 1905,
      "ᅻ": 1906,
      "ᅼ": 1907,
      "ᅽ": 1908,
      "ᅾ": 1909,
      "ᅿ": 1910,
      "ᆀ": 1911,
      "ᆁ": 1912,
      "ᆂ": 1913,
      "ᆃ": 1914,
      "ᆄ": 1915,
      "ᆅ": 1916,
      "ᆆ": 1917,
      "ᆇ": 1918,
      "ᆈ": 1919,
      "ᆉ": 1920,
      "ᆊ": 1921,
      "ᆋ": 1922,
      "ᆌ": 1923,
      "ᆍ": 1924,
      "ᆎ": 1925,
      "ᆏ": 1926,
      "ᆐ": 1927,
      "ᆑ": 1928,
      "ᆒ": 1929,
      "ᆓ": 1930,
      "ᆔ": 1931,
      "ᆕ": 1932,
      "ᆖ": 1933,
      "ᆗ": 1934,
      "ᆘ": 1935,
      "ᆙ": 1936,
      "ᆚ": 1937,
      "ᆛ": 1938,
      "ᆜ": 1939,
      "ᆝ": 1940,
      "ᆞ": 1941,
      "ᆟ": 1942,
      "ᆠ": 1943,
      "ᆡ": 1944,
      "ᆢ": 1945,
      "ᆣ": 1946,
      "ᆤ": 1947,
      "ᆥ": 1948,
      "ᆦ": 1949,
      "ᆧ": 1950,
      "ᆨ": 1951,
      "ᆩ": 1952,
      "ᆪ": 1953,
      "ᆫ": 1954,
      "ᆬ": 1955,
      "ᆭ": 1956,
      "ᆮ": 1957,
      "ᆯ": 1958,
      "ᆰ": 1959,
      "ᆱ": 1960,
      "ᆲ": 1961,
      "ᆳ": 1962,
      "ᆴ": 1963,
      "ᆵ": 1964,
      "ᆶ": 1965,
      "ᆷ": 1966,
      "ᆸ": 1967,
      "ᆹ": 1968,
      "ᆺ": 1969,
      "ᆻ": 1970,
      "ᆼ": 1971,
      "ᆽ": 1972,
      "ᆾ": 1973,
      "ᆿ": 1974,
      "ᇀ": 1975,
      "ᇁ": 1976,
      "ᇂ": 1977,
      "ᇃ": 1978,
      "ᇄ": 1979,
      "ᇅ": 1980,
      "ᇆ": 1981,
      "ᇇ": 1982,
      "ᇈ": 1983,
      "ᇉ": 1984,
      "ᇊ": 1985,
      "ᇋ": 1986,
      "ᇌ": 1987,
      "ᇍ": 1988,
      "ᇎ": 1989,
      "ᇏ": 1990,
      "ᇐ": 1991,
      "ᇑ": 1992,
      "ᇒ": 1993,
      "ᇓ": 1994,
      "ᇔ": 1995,
      "ᇕ": 1996,
      "ᇖ": 1997,
      "ᇗ": 1998,
      "ᇘ": 1999,
      "ᇙ": 2000,
      "ᇚ": 2001,
      "ᇛ": 2002,
      "ᇜ": 2003,
      "ᇝ": 2004,
      "ᇞ": 2005,
      "ᇟ": 2006,
      "ᇠ": 2007,
      "ᇡ": 2008,
      "ᇢ": 2009,
      "ᇣ": 2010,
      "ᇤ": 2011,
      "ᇥ": 2012,
      "ᇦ": 2013,
      "ᇧ": 2014,
      "ᇨ": 2015,
      "ᇩ": 2016,
      "ᇪ": 2017,
      "ᇫ": 2018,
      "ᇬ": 2019,
      "ᇭ": 2020,
      "ᇮ": 2021,
      "ᇯ": 2022,
      "ᇰ": 2023,
      "ᇱ": 2024,
      "ᇲ": 2025,
      "ᇳ": 2026,
      "ᇴ": 2027,
      "ᇵ": 2028,
      "ᇶ": 2029,
      "ᇷ": 2030,
      "ᇸ": 2031,
      "ᇹ": 2032,
      "ᇺ": 2033,
      "ᇻ": 2034,
      "ᇼ": 2035,
      "ᇽ": 2036,
      "ᇾ": 2037,
      "ᇿ": 2038,
      "ẜ": 2039,
      "ẝ": 2040,
      "ẞ": 2041,
      "ẟ": 2042,
      "Ỻ": 2043,
      "ỻ": 2044,
      "Ỽ": 2045,
      "ỽ": 2046,
      "Ỿ": 2047,
      "ỿ": 2048,
      "​": 2049,
      "‌": 2050,
      "‍": 2051,
      "[cj_3]": 2052,
      "[cj_4]": 2053,
      "†": 2054,
      "‡": 2055,
      "•": 2056,
      "‣": 2057,
      "‧": 2058,
      "[cj_5]": 2059,
      "[cj_6]": 2060,
      "[cj_7]": 2061,
      "[cj_8]": 2062,
      "[cj_9]": 2063,
      "[cj_.]": 2064,
      "[PLACEHOLDER45]": 2065,
      "‰": 2066,
      "‱": 2067,
      "′": 2068,
      "‵": 2069,
      "‸": 2070,
      "‹": 2071,
      "›": 2072,
      "※": 2073,
      "‽": 2074,
      "‿": 2075,
      "⁀": 2076,
      "⁁": 2077,
      "⁂": 2078,
      "⁃": 2079,
      "⁅": 2080,
      "⁆": 2081,
      "⁊": 2082,
      "⁋": 2083,
      "⁌": 2084,
      "⁍": 2085,
      "⁎": 2086,
      "⁏": 2087,
      "⁐": 2088,
      "⁑": 2089,
      "⁒": 2090,
      "⁓": 2091,
      "⁔": 2092,
      "⁕": 2093,
      "⁖": 2094,
      "⁘": 2095,
      "⁙": 2096,
      "⁚": 2097,
      "⁛": 2098,
      "⁜": 2099,
      "⁝": 2100,
      "⁞": 2101,
      "⁠": 2102,
      "⁡": 2103,
      "⁢": 2104,
      "⁣": 2105,
      "⁤": 2106,
      "[fi]": 2107,
      "[ta]": 2108,
      "[ms]": 2109,
      "[he]": 2110,
      "⁪": 2111,
      "⁫": 2112,
      "⁬": 2113,
      "⁭": 2114,
      "⁮": 2115,
      "⁯": 2116,
      "−": 2117,
      "、": 2118,
      "。": 2119,
      "〃": 2120,
      "〄": 2121,
      "々": 2122,
      "〆": 2123,
      "〇": 2124,
      "〈": 2125,
      "〉": 2126,
      "《": 2127,
      "》": 2128,
      "「": 2129,
      "」": 2130,
      "『": 2131,
      "』": 2132,
      "【": 2133,
      "】": 2134,
      "〒": 2135,
      "〓": 2136,
      "〔": 2137,
      "〕": 2138,
      "〖": 2139,
      "〗": 2140,
      "〘": 2141,
      "〙": 2142,
      "〚": 2143,
      "〛": 2144,
      "〜": 2145,
      "〝": 2146,
      "〞": 2147,
      "〟": 2148,
      "ぁ": 2149,
      "あ": 2150,
      "ぃ": 2151,
      "い": 2152,
      "ぅ": 2153,
      "う": 2154,
      "ぇ": 2155,
      "え": 2156,
      "ぉ": 2157,
      "お": 2158,
      "か": 2159,
      "゙": 2160,
      "き": 2161,
      "く": 2162,
      "け": 2163,
      "こ": 2164,
      "さ": 2165,
      "し": 2166,
      "す": 2167,
      "せ": 2168,
      "そ": 2169,
      "た": 2170,
      "ち": 2171,
      "っ": 2172,
      "つ": 2173,
      "て": 2174,
      "と": 2175,
      "な": 2176,
      "に": 2177,
      "ぬ": 2178,
      "ね": 2179,
      "の": 2180,
      "は": 2181,
      "゚": 2182,
      "ひ": 2183,
      "ふ": 2184,
      "へ": 2185,
      "ほ": 2186,
      "ま": 2187,
      "み": 2188,
      "む": 2189,
      "め": 2190,
      "も": 2191,
      "ゃ": 2192,
      "や": 2193,
      "ゅ": 2194,
      "ゆ": 2195,
      "ょ": 2196,
      "よ": 2197,
      "ら": 2198,
      "り": 2199,
      "る": 2200,
      "れ": 2201,
      "ろ": 2202,
      "ゎ": 2203,
      "わ": 2204,
      "ゐ": 2205,
      "ゑ": 2206,
      "を": 2207,
      "ん": 2208,
      "ゕ": 2209,
      "ゖ": 2210,
      "ゝ": 2211,
      "゠": 2212,
      "ァ": 2213,
      "ア": 2214,
      "ィ": 2215,
      "イ": 2216,
      "ゥ": 2217,
      "ウ": 2218,
      "ェ": 2219,
      "エ": 2220,
      "ォ": 2221,
      "オ": 2222,
      "カ": 2223,
      "キ": 2224,
      "ク": 2225,
      "ケ": 2226,
      "コ": 2227,
      "サ": 2228,
      "シ": 2229,
      "ス": 2230,
      "セ": 2231,
      "ソ": 2232,
      "タ": 2233,
      "チ": 2234,
      "ッ": 2235,
      "ツ": 2236,
      "テ": 2237,
      "ト": 2238,
      "ナ": 2239,
      "ニ": 2240,
      "ヌ": 2241,
      "ネ": 2242,
      "ノ": 2243,
      "ハ": 2244,
      "ヒ": 2245,
      "フ": 2246,
      "ヘ": 2247,
      "ホ": 2248,
      "マ": 2249,
      "ミ": 2250,
      "ム": 2251,
      "メ": 2252,
      "モ": 2253,
      "ャ": 2254,
      "ヤ": 2255,
      "ュ": 2256,
      "ユ": 2257,
      "ョ": 2258,
      "ヨ": 2259,
      "ラ": 2260,
      "リ": 2261,
      "ル": 2262,
      "レ": 2263,
      "ロ": 2264,
      "ヮ": 2265,
      "ワ": 2266,
      "ヰ": 2267,
      "ヱ": 2268,
      "ヲ": 2269,
      "ン": 2270,
      "ヵ": 2271,
      "ヶ": 2272,
      "・": 2273,
      "ー": 2274,
      "ヽ": 2275,
      "ㄅ": 2276,
      "ㄆ": 2277,
      "ㄇ": 2278,
      "ㄈ": 2279,
      "ㄉ": 2280,
      "ㄊ": 2281,
      "ㄋ": 2282,
      "ㄌ": 2283,
      "ㄍ": 2284,
      "ㄎ": 2285,
      "ㄏ": 2286,
      "ㄐ": 2287,
      "ㄑ": 2288,
      "ㄒ": 2289,
      "ㄓ": 2290,
      "ㄔ": 2291,
      "ㄕ": 2292,
      "ㄖ": 2293,
      "ㄗ": 2294,
      "ㄘ": 2295,
      "ㄙ": 2296,
      "ㄚ": 2297,
      "ㄛ": 2298,
      "ㄜ": 2299,
      "ㄝ": 2300,
      "ㄞ": 2301,
      "ㄟ": 2302,
      "ㄠ": 2303,
      "ㄡ": 2304,
      "ㄢ": 2305,
      "ㄣ": 2306,
      "ㄤ": 2307,
      "ㄥ": 2308,
      "ㄦ": 2309,
      "ㄧ": 2310,
      "ㄨ": 2311,
      "ㄩ": 2312,
      "ㄪ": 2313,
      "ㄫ": 2314,
      "ㄬ": 2315,
      "ㄭ": 2316,
      "ㄮ": 2317,
      "ㄯ": 2318,
      "ph": 2319,
      "rr": 2320,
      "gn": 2321,
      "ng": 2322,
      "dt": 2323,
      "sj": 2324,
      "uw": 2325,
      "ff": 2326,
      "gg": 2327,
      "kk": 2328,
      "nn": 2329,
      "mm": 2330,
      "ss": 2331,
      "tt": 2332,
      "zz": 2333,
      "ds": 2334,
      "ai": 2335,
      "au": 2336,
      "ea": 2337,
      "ee": 2338,
      "ei": 2339,
      "eu": 2340,
      "ew": 2341,
      "ij": 2342,
      "oa": 2343,
      "oi": 2344,
      "oo": 2345,
      "ue": 2346,
      "eau": 2347,
      "tch": 2348,
      "sch": 2349,
      "🙊": 2350,
      "🤭": 2351,
      "": 2352,
      "": 2353,
      "": 2354,
      "": 2355,
      "": 2356,
      "": 2357,
      "": 2358,
      "": 2359,
      "ē": 2360,
      "ę": 2361,
      "Ī": 2362,
      "į": 2363,
      "Ĺ": 2364,
      "ľ": 2365,
      "ř": 2366,
      "Ś": 2367,
      "š": 2368,
      "ţ": 2369,
      "Ũ": 2370,
      "ũ": 2371,
      "ų": 2372,
      "Ȁ": 2373,
      "ȟ": 2374,
      "ȯ": 2375,
      "Й": 2376,
      "й": 2377,
      "߶": 2378,
      "ঁ": 2379,
      "ং": 2380,
      "ঃ": 2381,
      "অ": 2382,
      "আ": 2383,
      "ই": 2384,
      "ঈ": 2385,
      "উ": 2386,
      "ঊ": 2387,
      "ঋ": 2388,
      "ঌ": 2389,
      "এ": 2390,
      "ঐ": 2391,
      "ও": 2392,
      "ঔ": 2393,
      "ক": 2394,
      "খ": 2395,
      "গ": 2396,
      "ঘ": 2397,
      "ঙ": 2398,
      "চ": 2399,
      "ছ": 2400,
      "জ": 2401,
      "ঝ": 2402,
      "ঞ": 2403,
      "ট": 2404,
      "ঠ": 2405,
      "ড": 2406,
      "ঢ": 2407,
      "ণ": 2408,
      "ত": 2409,
      "থ": 2410,
      "দ": 2411,
      "ধ": 2412,
      "ন": 2413,
      "প": 2414,
      "ফ": 2415,
      "ব": 2416,
      "ভ": 2417,
      "ম": 2418,
      "য": 2419,
      "র": 2420,
      "ল": 2421,
      "শ": 2422,
      "ষ": 2423,
      "স": 2424,
      "হ": 2425,
      "়": 2426,
      "া": 2427,
      "ি": 2428,
      "ী": 2429,
      "ু": 2430,
      "ূ": 2431,
      "ৃ": 2432,
      "ে": 2433,
      "ৈ": 2434,
      "ো": 2435,
      "ৌ": 2436,
      "্": 2437,
      "ৎ": 2438,
      "ৗ": 2439,
      "৤": 2440,
      "৥": 2441,
      "০": 2442,
      "১": 2443,
      "২": 2444,
      "৩": 2445,
      "৪": 2446,
      "৫": 2447,
      "৬": 2448,
      "৭": 2449,
      "৮": 2450,
      "৯": 2451,
      "ৰ": 2452,
      "ৱ": 2453,
      "৳": 2454,
      "৴": 2455,
      "৵": 2456,
      "৶": 2457,
      "৷": 2458,
      "৹": 2459,
      "‎": 2460,
      "‏": 2461,
      "‬": 2462,
      "€": 2463,
      "→": 2464,
      "⇒": 2465,
      "∏": 2466,
      "√": 2467,
      "∞": 2468,
      "∣": 2469,
      "│": 2470,
      "┐": 2471,
      "┤": 2472,
      "┬": 2473,
      "║": 2474,
      "╓": 2475,
      "╕": 2476,
      "╖": 2477,
      "╗": 2478,
      "╚": 2479,
      "╛": 2480,
      "╜": 2481,
      "╝": 2482,
      "╞": 2483,
      "╟": 2484,
      "╠": 2485,
      "╢": 2486,
      "╣": 2487,
      "╨": 2488,
      "╬": 2489,
      "▐": 2490,
      "░": 2491,
      "▒": 2492,
      "▓": 2493,
      "■": 2494,
      "◊": 2495,
      "●": 2496,
      "☀": 2497,
      "★": 2498,
      "☼": 2499,
      "♦": 2500,
      "❒": 2501,
      "裥": 2502,
      "": 2503,
      "": 2504,
      "": 2505,
      "": 2506,
      "": 2507,
      "": 2508,
      "": 2509,
      "": 2510,
      "": 2511,
      "": 2512,
      "": 2513,
      "": 2514,
      "": 2515,
      "": 2516,
      "": 2517,
      "": 2518,
      "": 2519,
      "": 2520,
      "": 2521,
      "": 2522,
      "": 2523,
      "": 2524,
      "": 2525,
      "": 2526,
      "": 2527,
      "": 2528,
      "": 2529,
      "": 2530,
      "": 2531,
      "": 2532,
      "": 2533,
      "": 2534,
      "": 2535,
      "": 2536,
      "": 2537,
      "": 2538,
      "": 2539,
      "": 2540,
      "": 2541,
      "": 2542,
      "": 2543,
      "": 2544,
      "": 2545,
      "": 2546,
      "": 2547,
      "": 2548,
      "": 2549,
      "": 2550,
      "": 2551,
      "": 2552,
      "": 2553,
      "": 2554,
      "": 2555,
      "": 2556,
      "": 2557,
      "": 2558,
      "": 2559,
      "": 2560,
      "": 2561,
      "": 2562,
      "": 2563,
      "": 2564,
      "": 2565,
      "": 2566,
      "": 2567,
      "": 2568,
      "": 2569,
      "": 2570,
      "": 2571,
      "": 2572,
      "": 2573,
      "": 2574,
      "": 2575,
      "": 2576,
      "": 2577,
      "": 2578,
      "": 2579,
      "": 2580,
      "�": 2581,
      "🌅": 2582,
      "🌈": 2583,
      "💜": 2584,
      "য়": 2585,
      "ার": 2586,
      "ের": 2587,
      "্র": 2588,
      "্য": 2589,
      "ান": 2590,
      "কর": 2591,
      "েন": 2592,
      "্ত": 2593,
      "য়ে": 2594,
      "বি": 2595,
      "বা": 2596,
      "নি": 2597,
      "কে": 2598,
      "াল": 2599,
      "প্র": 2600,
      "তি": 2601,
      "ায়": 2602,
      "বে": 2603,
      "াম": 2604,
      "টি": 2605,
      "তে": 2606,
      "ছে": 2607,
      "তা": 2608,
      "লা": 2609,
      "র্": 2610,
      "স্": 2611,
      "ড়": 2612,
      "রা": 2613,
      "লে": 2614,
      "কা": 2615,
      "না": 2616,
      "পর": 2617,
      "দে": 2618,
      "ক্": 2619,
      "দি": 2620,
      "নে": 2621,
      "কার": 2622,
      "মা": 2623,
      "ক্ষ": 2624,
      "ুল": 2625,
      "দের": 2626,
      "জন": 2627,
      "মি": 2628,
      "ুর": 2629,
      "পা": 2630,
      "্যা": 2631,
      "ন্": 2632,
      "সে": 2633,
      "য়া": 2634,
      "কি": 2635,
      "করে": 2636,
      "সা": 2637,
      "এক": 2638,
      "ন্ত": 2639,
      "সম": 2640,
      "সি": 2641,
      "শি": 2642,
      "গে": 2643,
      "ভা": 2644,
      "টা": 2645,
      "লেন": 2646,
      "বার": 2647,
      "হা": 2648,
      "ছি": 2649,
      "থা": 2650,
      "ষ্": 2651,
      "িত": 2652,
      "দ্": 2653,
      "ছেন": 2654,
      "ঙ্": 2655,
      "হয়ে": 2656,
      "রে": 2657,
      "য়ার": 2658,
      "িক": 2659,
      "থে": 2660,
      "তাঁ": 2661,
      "মে": 2662,
      "মান": 2663,
      "নের": 2664,
      "্ব": 2665,
      "জে": 2666,
      "দেশ": 2667,
      "কো": 2668,
      "থেকে": 2669,
      "হয়": 2670,
      "দু": 2671,
      "ক্ত": 2672,
      "ভি": 2673,
      "পার": 2674,
      "সং": 2675,
      "ব্য": 2676,
      "োগ": 2677,
      "ত্র": 2678,
      "জান": 2679,
      "পরি": 2680,
      "্ম": 2681,
      "লি": 2682,
      "চ্": 2683,
      "গ্র": 2684,
      "ির": 2685,
      "করা": 2686,
      "ার্": 2687,
      "প্রতি": 2688,
      "িয়ে": 2689,
      "ওয়া": 2690,
      "টে": 2691,
      "স্ত": 2692,
      "জা": 2693,
      "স্থ": 2694,
      "এই": 2695,
      "লো": 2696,
      "নো": 2697,
      "অন": 2698,
      "ধ্য": 2699,
      "গত": 2700,
      "বলেন": 2701,
      "শে": 2702,
      "মু": 2703,
      "্প": 2704,
      "ীয়": 2705,
      "জি": 2706,
      "শা": 2707,
      "যা": 2708,
      "কাল": 2709,
      "আর": 2710,
      "উপ": 2711,
      "ীর": 2712,
      "হয়েছে": 2713,
      "দা": 2714,
      "তার": 2715,
      "মো": 2716,
      "নির্": 2717,
      "যোগ": 2718,
      "রি": 2719,
      "হি": 2720,
      "সু": 2721,
      "দ্ধ": 2722,
      "নিয়ে": 2723,
      "চে": 2724,
      "ক্র": 2725,
      "্ড": 2726,
      "পুর": 2727,
      "সব": 2728,
      "ছিল": 2729,
      "ড়া": 2730,
      "তিনি": 2731,
      "ডি": 2732,
      "হবে": 2733,
      "খা": 2734,
      "সঙ্": 2735,
      "্যান": 2736,
      "খে": 2737,
      "জন্য": 2738,
      "কর্ম": 2739,
      "জার": 2740,
      "নার": 2741,
      "ঞ্": 2742,
      "কের": 2743,
      "ন্ত্র": 2744,
      "ট্র": 2745,
      "েন্": 2746,
      "সঙ্গে": 2747,
      "লার": 2748,
      "সর": 2749,
      "যে": 2750,
      "পে": 2751,
      "চার": 2752,
      "ছা": 2753,
      "ষ্ঠ": 2754,
      "ুন": 2755,
      "বাং": 2756,
      "দিয়ে": 2757,
      "ড়ে": 2758,
      "ওয়ার": 2759,
      "সহ": 2760,
      "ধান": 2761,
      "চা": 2762,
      "টার": 2763,
      "চি": 2764,
      "বাংলা": 2765,
      "বলে": 2766,
      "অব": 2767,
      "তো": 2768,
      "দিন": 2769,
      "খান": 2770,
      "করেন": 2771,
      "অভি": 2772,
      "এর": 2773,
      "দ্য": 2774,
      "রো": 2775,
      "তাঁর": 2776,
      "গা": 2777,
      "আম": 2778,
      "পি": 2779,
      "মধ্য": 2780,
      "দল": 2781,
      "ুলি": 2782,
      "য়ের": 2783,
      "একটি": 2784,
      "োর": 2785,
      "শ্": 2786,
      "অনু": 2787,
      "বর": 2788,
      "ত্ত": 2789,
      "প্ত": 2790,
      "সম্": 2791,
      "চ্ছে": 2792,
      "চাল": 2793,
      "নাম": 2794,
      "আই": 2795,
      "শু": 2796,
      "দ্র": 2797,
      "ব্যব": 2798,
      "বল": 2799,
      "বাংলাদেশ": 2800,
      "রের": 2801,
      "কোনো": 2802,
      "করতে": 2803,
      "ব্যা": 2804,
      "ছিলেন": 2805,
      "মধ্যে": 2806,
      "ালে": 2807,
      "শেষ": 2808,
      "যু": 2809,
      "শিক্ষ": 2810,
      "ন্ন": 2811,
      "বছ": 2812,
      "বন্": 2813,
      "২০": 2814,
      "বং": 2815,
      "ভার": 2816,
      "সরকার": 2817,
      "খন": 2818,
      "এবং": 2819,
      "যায়": 2820,
      "।’": 2821,
      "ঘট": 2822,
      "লী": 2823,
      "ক্তি": 2824,
      "জ্": 2825,
      "প্রথ": 2826,
      "সময়": 2827,
      "সাম": 2828,
      "গুল": 2829,
      "এম": 2830,
      "হার": 2831,
      "নির্বা": 2832,
      "বিষ": 2833,
      "সদ": 2834,
      "ঙ্গ": 2835,
      "পুলি": 2836,
      "ড়ি": 2837,
      "রু": 2838,
      "ধার": 2839,
      "নিয়": 2840,
      "পুলিশ": 2841,
      "টির": 2842,
      "সের": 2843,
      "গের": 2844,
      "প্রথম": 2845,
      "কথা": 2846,
      "হত": 2847,
      "ুরু": 2848,
      "ক্ষে": 2849,
      "ভাবে": 2850,
      "ছু": 2851,
      "বো": 2852,
      "গ্রাম": 2853,
      "শ্ব": 2854,
      "ান্ত": 2855,
      "ওয়": 2856,
      "মন্ত্র": 2857,
      "পতি": 2858,
      "জের": 2859,
      "চল": 2860,
      "উপজে": 2861,
      "লাম": 2862,
      "র্থ": 2863,
      "ন্তু": 2864,
      "কর্ত": 2865,
      "স্থা": 2866,
      "ল্প": 2867,
      "গতকাল": 2868,
      "ওই": 2869,
      "ফি": 2870,
      "ইউ": 2871,
      "থাক": 2872,
      "বু": 2873,
      "গো": 2874,
      "ানি": 2875,
      "আলো": 2876,
      "সেন": 2877,
      "কিন্তু": 2878,
      "বিদ্য": 2879,
      "চিত": 2880,
      "বাস": 2881,
      "শন": 2882,
      "বিশ্ব": 2883,
      "হো": 2884,
      "ার্থ": 2885,
      "ষ্ঠান": 2886,
      "রাজ": 2887,
      "তীয়": 2888,
      "ইস": 2889,
      "দুই": 2890,
      "মার": 2891,
      "নয়": 2892,
      "শ্র": 2893,
      "নায়": 2894,
      "টের": 2895,
      "হাস": 2896,
      "পারে": 2897,
      "তবে": 2898,
      "মাম": 2899,
      "কাজ": 2900,
      "এন": 2901,
      "এলা": 2902,
      "দেওয়া": 2903,
      "অনে": 2904,
      "প্রা": 2905,
      "দী": 2906,
      "ংশ": 2907,
      "ফে": 2908,
      "কু": 2909,
      "কিছু": 2910,
      "ঢা": 2911,
      "নির্বাচ": 2912,
      "আজ": 2913,
      "উদ্": 2914,
      "স্থান": 2915,
      "নী": 2916,
      "প্রধান": 2917,
      "ামী": 2918,
      "সার": 2919,
      "তিন": 2920,
      "ধি": 2921,
      "কমি": 2922,
      "ুষ": 2923,
      "ল্": 2924,
      "গুলো": 2925,
      "হলে": 2926,
      "বেন": 2927,
      "স্য": 2928,
      "আগে": 2929,
      "বন্ধ": 2930,
      "ণে": 2931,
      "দিকে": 2932,
      "হচ্ছে": 2933,
      "কম": 2934,
      "পর্য": 2935,
      "সো": 2936,
      "হাজার": 2937,
      "সভা": 2938,
      "হী": 2939,
      "বৃ": 2940,
      "জানান": 2941,
      "ার্থী": 2942,
      "তের": 2943,
      "ফা": 2944,
      "টাকা": 2945,
      "১০": 2946,
      "বিদ্যাল": 2947,
      "হাম": 2948,
      "স্ব": 2949,
      "স্ট": 2950,
      "সূ": 2951,
      "শুরু": 2952,
      "ানা": 2953,
      "আমি": 2954,
      "ক্রি": 2955,
      "কর্মকর্ত": 2956,
      "তিক": 2957,
      "লের": 2958,
      "ভে": 2959,
      "দার": 2960,
      "জ্ঞ": 2961,
      "ালো": 2962,
      "ৃত": 2963,
      "গেছে": 2964,
      "করার": 2965,
      "বছর": 2966,
      "তাঁদের": 2967,
      "করেছেন": 2968,
      "আব": 2969,
      "এস": 2970,
      "তু": 2971,
      "ব্র": 2972,
      "স্বা": 2973,
      "দায়": 2974,
      "আছে": 2975,
      "কায়": 2976,
      "ইন": 2977,
      "জী": 2978,
      "ধারণ": 2979,
      "ইসলাম": 2980,
      "ম্ব": 2981,
      "ডে": 2982,
      "দেন": 2983,
      "খানে": 2984,
      "পো": 2985,
      "আস": 2986,
      "বেশি": 2987,
      "তির": 2988,
      "নেই": 2989,
      "ষণ": 2990,
      "আমা": 2991,
      "ালের": 2992,
      "এখন": 2993,
      "মানুষ": 2994,
      "বাদ": 2995,
      "ানের": 2996,
      "ভিন্ন": 2997,
      "আরও": 2998,
      "য়ো": 2999,
      "ন্দ": 3000,
      "খু": 3001,
      "ষ্ট": 3002,
      "অনেক": 3003,
      "রহ": 3004,
      "মন্ত্রী": 3005,
      "তাঁরা": 3006,
      "পূ": 3007,
      "গিয়ে": 3008,
      "বেশ": 3009,
      "ম্যা": 3010,
      "বাই": 3011,
      "জাম": 3012,
      "যান": 3013,
      "করেছে": 3014,
      "গর": 3015,
      "আমরা": 3016,
      "য়েছে": 3017,
      "লায়": 3018,
      "কারী": 3019,
      "বর্ত": 3020,
      "ূল": 3021,
      "নত": 3022,
      "মিক": 3023,
      "ধী": 3024,
      "সভাপতি": 3025,
      "আল": 3026,
      "দুল": 3027,
      "ধা": 3028,
      "আদ": 3029,
      "আহ": 3030,
      "্ট": 3031,
      "বিভিন্ন": 3032,
      "হে": 3033,
      "মন": 3034,
      "কর্মকর্তা": 3035,
      "তাদের": 3036,
      "বিষয়": 3037,
      "দেখা": 3038,
      "হোসেন": 3039,
      "ষ্ট্র": 3040,
      "দক": 3041,
      "হিসে": 3042,
      "েন্দ্র": 3043,
      "রহমান": 3044,
      "আগ": 3045,
      "সেই": 3046,
      "হিসেবে": 3047,
      "জু": 3048,
      "রাষ্ট্র": 3049,
      "ধর": 3050,
      "বের": 3051,
      "সম্প": 3052,
      "পক্ষ": 3053,
      "অন্য": 3054,
      "অভিযোগ": 3055,
      "পর্যন্ত": 3056,
      "ানো": 3057,
      "শী": 3058,
      "সাং": 3059,
      "বাজার": 3060,
      "ছাড়া": 3061,
      "্যান্ড": 3062,
      "সদস্য": 3063,
      "কাছে": 3064,
      "ভালো": 3065,
      "গণ": 3066,
      "মাধ্য": 3067,
      "বড়": 3068,
      "ঁচ": 3069,
      "মতো": 3070,
      "প্": 3071,
      "ঠে": 3072,
      "নতুন": 3073,
      "কৃ": 3074,
      "বাড়ি": 3075,
      "কার্য": 3076,
      "তারা": 3077,
      "োট": 3078,
      "ছবি": 3079,
      "দলের": 3080,
      "আমাদের": 3081,
      "পরে": 3082,
      "পাত": 3083,
      "কী": 3084,
      "ালি": 3085,
      "ক্ষা": 3086,
      "ঢাকা": 3087,
      "গু": 3088,
      "বন": 3089,
      "র্ণ": 3090,
      "দেখ": 3091,
      "দেশের": 3092,
      "মের": 3093,
      "বিএন": 3094,
      "মার্": 3095,
      "বেদ": 3096,
      "হন": 3097,
      "য়েক": 3098,
      "পাল": 3099,
      "এমন": 3100,
      "কেন্দ্র": 3101,
      "ঘটনা": 3102,
      "দুর্": 3103,
      "ম্বর": 3104,
      "উত্ত": 3105,
      "যুক্ত": 3106,
      "মুখ": 3107,
      "টু": 3108,
      "ছাত্র": 3109,
      "মূল": 3110,
      "গঠ": 3111,
      "পরিচাল": 3112,
      "চেয়ে": 3113,
      "তাঁকে": 3114,
      "বী": 3115,
      "রয়েছে": 3116,
      "জেলা": 3117,
      "থান": 3118,
      "কয়েক": 3119,
      "বিভা": 3120,
      "প্রে": 3121,
      "ত্রে": 3122,
      "বাড়": 3123,
      "рж": 3124,
      "আদাল": 3125,
      "গঞ্": 3126,
      "মাণ": 3127,
      "ম্যান": 3128,
      "২০১": 3129,
      "আওয়": 3130,
      "সী": 3131,
      "দ্ধে": 3132,
      "আওয়ামী": 3133,
      "কারণে": 3134,
      "জানা": 3135,
      "আট": 3136,
      "আমার": 3137,
      "ণ্ড": 3138,
      "ব্যবস্থা": 3139,
      "রণ": 3140,
      "দর্": 3141,
      "পড়ে": 3142,
      "দাবি": 3143,
      "পড়": 3144,
      "প্রায়": 3145,
      "লীগের": 3146,
      "হতে": 3147,
      "সকাল": 3148,
      "প্রি": 3149,
      "ত্ব": 3150,
      "জাতীয়": 3151,
      "সাধারণ": 3152,
      "ওপর": 3153,
      "কলে": 3154,
      "অংশ": 3155,
      "মনে": 3156,
      "সমা": 3157,
      "বিশ্ববিদ্যাল": 3158,
      "পির": 3159,
      "গ্রে": 3160,
      "অর্থ": 3161,
      "ভাব": 3162,
      "রান": 3163,
      "য়ন": 3164,
      "ফো": 3165,
      "চাই": 3166,
      "ধরে": 3167,
      "সরকারি": 3168,
      "উপজেলা": 3169,
      "১৯": 3170,
      "দিতে": 3171,
      "েন্ট": 3172,
      "বিরু": 3173,
      "দেশে": 3174,
      "ত্য": 3175,
      "বিরুদ্ধে": 3176,
      "প্রকা": 3177,
      "এসে": 3178,
      "গ্রহ": 3179,
      "উপজেলার": 3180,
      "এসব": 3181,
      "আপ": 3182,
      "শো": 3183,
      "মাল": 3184,
      "নেতা": 3185,
      "থ্য": 3186,
      "অধি": 3187,
      "অ্যা": 3188,
      "পাঁচ": 3189,
      "পাঠ": 3190,
      "তাই": 3191,
      "প্রতিষ্ঠান": 3192,
      "বাংলাদেশের": 3193,
      "ব্যক্তি": 3194,
      "আইন": 3195,
      "লাখ": 3196,
      "জানিয়ে": 3197,
      "বৈ": 3198,
      "সালে": 3199,
      "অনুষ্ঠান": 3200,
      "পের": 3201,
      "তৈ": 3202,
      "তথ্য": 3203,
      "য়োজন": 3204,
      "ফু": 3205,
      "এতে": 3206,
      "ক্য": 3207,
      "ভূ": 3208,
      "সড়": 3209,
      "হাসপাত": 3210,
      "সম্পা": 3211,
      "ীদের": 3212,
      "ট্ট": 3213,
      "ব্যাং": 3214,
      "স্ত্র": 3215,
      "পরী": 3216,
      "ব্": 3217,
      "ান্": 3218,
      "বিষয়ে": 3219,
      "বলা": 3220,
      "চেয়ার": 3221,
      "ডা": 3222,
      "ধু": 3223,
      "পু": 3224,
      "হলো": 3225,
      "ঘা": 3226,
      "দো": 3227,
      "র্ষ": 3228,
      "প্রশ্": 3229,
      "হু": 3230,
      "র্ত": 3231,
      "ঘো": 3232,
      "বারের": 3233,
      "খনো": 3234,
      "িতে": 3235,
      "উই": 3236,
      "একজন": 3237,
      "গ্রামের": 3238,
      "এলাকায়": 3239,
      "কেল": 3240,
      "বিচার": 3241,
      "পাওয়া": 3242,
      "পারেন": 3243,
      "মামলা": 3244,
      "ারা": 3245,
      "সন্": 3246,
      "সাই": 3247,
      "চট্ট": 3248,
      "নির্বাচন": 3249,
      "পত্র": 3250,
      "পক্ষে": 3251,
      "ভব": 3252,
      "রাজন": 3253,
      "নেওয়া": 3254,
      "ইউনিয়": 3255,
      "শ্য": 3256,
      "শাস": 3257,
      "রাখ": 3258,
      "সম্পাদক": 3259,
      "টো": 3260,
      "লাই": 3261,
      "ষ্টি": 3262,
      "চিকি": 3263,
      "বির": 3264,
      "স্তা": 3265,
      "পৌ": 3266,
      "দর": 3267,
      "কদের": 3268,
      "শতা": 3269,
      "৩০": 3270,
      "ঞ্চ": 3271,
      "নির": 3272,
      "মাধ্যমে": 3273,
      "শিল্প": 3274,
      "শিক্ষার্থী": 3275,
      "বছরের": 3276,
      "ফল": 3277,
      "স্থানীয়": 3278,
      "পেয়ে": 3279,
      "বিশেষ": 3280,
      "কেট": 3281,
      "আলোকে": 3282,
      "করি": 3283,
      "একটা": 3284,
      "১১": 3285,
      "প্রক": 3286,
      "চৌ": 3287,
      "এটা": 3288,
      "চিকিৎ": 3289,
      "লোক": 3290,
      "দন্ত": 3291,
      "আন": 3292,
      "দুটি": 3293,
      "জয়": 3294,
      "শিশু": 3295,
      "বক্ত": 3296,
      "জনের": 3297,
      "অপ": 3298,
      "কোটি": 3299,
      "সেখানে": 3300,
      "ঠিক": 3301,
      "কেন": 3302,
      "উৎ": 3303,
      "চনা": 3304,
      "চ্চ": 3305,
      "প্তার": 3306,
      "হওয়ার": 3307,
      "১২": 3308,
      "গ্রেপ্তার": 3309,
      "তৈরি": 3310,
      "ষণা": 3311,
      "ব্যবহার": 3312,
      "র্ব": 3313,
      "ড়িয়ে": 3314,
      "তায়": 3315,
      "ীরা": 3316,
      "উন্ন": 3317,
      "দ্বি": 3318,
      "আবার": 3319,
      "প্রার্থী": 3320,
      "মাত্র": 3321,
      "ষ্টা": 3322,
      "সালের": 3323,
      "ৈতিক": 3324,
      "পদ": 3325,
      "লেও": 3326,
      "তদন্ত": 3327,
      "৫০": 3328,
      "চেয়ারম্যান": 3329,
      "ারে": 3330,
      "সায়": 3331,
      "সাবে": 3332,
      "উদ্দিন": 3333,
      "ধরনের": 3334,
      "উল্": 3335,
      "ধুর": 3336,
      "বেদন": 3337,
      "উন্": 3338,
      "যো": 3339,
      "বিএনপির": 3340,
      "ক্স": 3341,
      "শের": 3342,
      "উত্তর": 3343,
      "সংখ": 3344,
      "হয়নি": 3345,
      ")।": 3346,
      "ম্": 3347,
      "একই": 3348,
      "খো": 3349,
      "যাবে": 3350,
      "ঘটনায়": 3351,
      "ফের": 3352,
      "ম্যাচ": 3353,
      "দূ": 3354,
      "দেওয়ার": 3355,
      "মেল": 3356,
      "যাত্র": 3357,
      "পূর্ণ": 3358,
      "খুব": 3359,
      "হান": 3360,
      "শনের": 3361,
      "নিশ্": 3362,
      "কেরা": 3363,
      "শহ": 3364,
      "লু": 3365,
      "ভো": 3366,
      "বয়": 3367,
      "হত্যা": 3368,
      "তন": 3369,
      "নিতে": 3370,
      "চৌধুর": 3371,
      "একা": 3372,
      "রাতে": 3373,
      "কেউ": 3374,
      "নিজে": 3375,
      "গঞ্জ": 3376,
      "বিক": 3377,
      "চিত্র": 3378,
      "বার্": 3379,
      "আবদুল": 3380,
      "ানোর": 3381,
      "ত্যা": 3382,
      "তুলে": 3383,
      "স্ট্র": 3384,
      "এবার": 3385,
      "পানি": 3386,
      "স্টে": 3387,
      "পক": 3388,
      "রাত": 3389,
      "সম্পর্": 3390,
      "হক": 3391,
      "চট্টগ্রাম": 3392,
      "সাত": 3393,
      "ুয়ার": 3394,
      "পরিচালক": 3395,
      "তখন": 3396,
      "দিয়েছেন": 3397,
      "িত্ব": 3398,
      "কারণ": 3399,
      "শিক্ষা": 3400,
      "্যের": 3401,
      "ক্ষেত্রে": 3402,
      "কল": 3403,
      "করছে": 3404,
      "যদি": 3405,
      "্মদ": 3406,
      "ুরি": 3407,
      "এরপর": 3408,
      "য়ান": 3409,
      "আলী": 3410,
      "২০০": 3411,
      "পার্": 3412,
      "থানার": 3413,
      "প্রশাস": 3414,
      "গান": 3415,
      "পরিষ": 3416,
      "১৫": 3417,
      "দেয়": 3418,
      "জায়": 3419,
      "ণের": 3420,
      "দ্ধার": 3421,
      "সরকারের": 3422,
      "পন": 3423,
      "দক্ষ": 3424,
      "করছেন": 3425,
      "স্ক": 3426,
      "গুরু": 3427,
      "মাহ": 3428,
      "থাকে": 3429,
      "চলে": 3430,
      "ঙ্গল": 3431,
      "ইন্": 3432,
      "রায়": 3433,
      "্যে": 3434,
      "আলম": 3435,
      "বিষয়টি": 3436,
      "ছেলে": 3437,
      "শতাংশ": 3438,
      "অর্": 3439,
      "সাবেক": 3440,
      "মৃত": 3441,
      "মুক্তি": 3442,
      "স্থায়": 3443,
      "চু": 3444,
      "জর": 3445,
      "ছয়": 3446,
      "শেখ": 3447,
      "সুযোগ": 3448,
      "বৃহ": 3449,
      "বিজ্ঞ": 3450,
      "প্রাপ্ত": 3451,
      "াম্প": 3452,
      "চেষ্টা": 3453,
      "টাই": 3454,
      "নিহত": 3455,
      "সংবাদ": 3456,
      "শাহ": 3457,
      "পান": 3458,
      "ক্ষম": 3459,
      "দিনের": 3460,
      "সিদ্ধ": 3461,
      "লেখ": 3462,
      "বক্তব্য": 3463,
      "তী": 3464,
      "থি": 3465,
      "চ্ছেন": 3466,
      "পুলিশের": 3467,
      "ধীন": 3468,
      "র্জা": 3469,
      "কার্যাল": 3470,
      "উদ্ধার": 3471,
      "ভু": 3472,
      "নিরা": 3473,
      "কলেজ": 3474,
      "ত্": 3475,
      "্যার": 3476,
      "খবর": 3477,
      "কিস্ত": 3478,
      "টিতে": 3479,
      "শুধু": 3480,
      "ওয়ে": 3481,
      "সম্মেল": 3482,
      "সামনে": 3483,
      "আসাম": 3484,
      "ময়": 3485,
      "বলেছেন": 3486,
      "বিরো": 3487,
      "ফ্র": 3488,
      "চৌধুরী": 3489,
      "কাম": 3490,
      "হাম্মদ": 3491,
      "শিক্ষক": 3492,
      "ালা": 3493,
      "নিক": 3494,
      "আশ": 3495,
      "মানুষের": 3496,
      "ফর": 3497,
      "লক্ষ": 3498,
      "প্রকাশ": 3499,
      "ধ্যা": 3500,
      "দাম": 3501,
      "দিক": 3502,
      "সির": 3503,
      "বিত": 3504,
      "ঘোষণা": 3505,
      "ট্রা": 3506,
      "স্থি": 3507,
      "পুরে": 3508,
      "মঙ্গল": 3509,
      "ঠি": 3510,
      "শেষে": 3511,
      "বর্তমান": 3512,
      "জমি": 3513,
      "সিদ্ধান্ত": 3514,
      "গুলোর": 3515,
      "নিজের": 3516,
      "এটি": 3517,
      "গোল": 3518,
      "সার্": 3519,
      "পণ": 3520,
      "দশ": 3521,
      "পাকিস্ত": 3522,
      "থাকা": 3523,
      "আত": 3524,
      "মনো": 3525,
      "কিং": 3526,
      "হাতে": 3527,
      "বিশ্": 3528,
      "সংগঠ": 3529,
      "এলাকার": 3530,
      "ল্যান্ড": 3531,
      "বিভাগের": 3532,
      "রোব": 3533,
      "নারী": 3534,
      "সোম": 3535,
      "পুরো": 3536,
      "বিশ্ববিদ্যালয়ের": 3537,
      "জো": 3538,
      "কারা": 3539,
      "স্পতি": 3540,
      "বায়": 3541,
      "বৃহস্পতি": 3542,
      "সদর": 3543,
      "নামের": 3544,
      "আগামী": 3545,
      "ভাগ": 3546,
      "আন্ত": 3547,
      "নীতি": 3548,
      "সমর্থ": 3549,
      "স্থিত": 3550,
      "বাহি": 3551,
      "পত্ত": 3552,
      "ঙ্গা": 3553,
      "টায়": 3554,
      "ণ্": 3555,
      "রেখে": 3556,
      "ফুট": 3557,
      "প্রশ্ন": 3558,
      "ওয়ায়": 3559,
      "দর্শ": 3560,
      "বস": 3561,
      "োল": 3562,
      "্যু": 3563,
      "শাল": 3564,
      "বৃহস্পতিবার": 3565,
      "ভাই": 3566,
      "শার": 3567,
      "তুল": 3568,
      "ক্লা": 3569,
      "প্রধানমন্ত্রী": 3570,
      "চর": 3571,
      "ফুল": 3572,
      "ীন": 3573,
      "তম": 3574,
      "উদ্য": 3575,
      "ভারতের": 3576,
      "দায়িত্ব": 3577,
      "নাট": 3578,
      "সাড়ে": 3579,
      "এখনো": 3580,
      "বুধ": 3581,
      "নিশ্চিত": 3582,
      "ুক": 3583,
      "ডের": 3584,
      "হয়েছিল": 3585,
      "ুয়ারি": 3586,
      "হের": 3587,
      "আহত": 3588,
      "সোমবার": 3589,
      "জানতে": 3590,
      "বেলা": 3591,
      "দান": 3592,
      "ঘটে": 3593,
      "সূত্র": 3594,
      "জিত": 3595,
      "হয়েছেন": 3596,
      "রোববার": 3597,
      "ব্যবসায়": 3598,
      "মোট": 3599,
      "ক্রম": 3600,
      "হাসপাতালে": 3601,
      "মঙ্গলবার": 3602,
      "যাচ্ছে": 3603,
      "শনি": 3604,
      "বাঁ": 3605,
      "বুধবার": 3606,
      "দক্ষি": 3607,
      "সড়ক": 3608,
      "অনুষ্ঠানে": 3609,
      "সভ": 3610,
      "গ্": 3611,
      "কান": 3612,
      "ণাল": 3613,
      "কমিটির": 3614,
      "যেতে": 3615,
      "ইতি": 3616,
      "মেয়ে": 3617,
      "স্কার": 3618,
      "আহমে": 3619,
      "আদালত": 3620,
      "রাজনৈতিক": 3621,
      "মোহাম্মদ": 3622,
      "সবাই": 3623,
      "বন্ধু": 3624,
      "েনে": 3625,
      "ভোট": 3626,
      "দ্বিতীয়": 3627,
      "দেশি": 3628,
      "মন্ত্রণাল": 3629,
      "নম্বর": 3630,
      "নামে": 3631,
      "গ্রহণ": 3632,
      "ভাষ": 3633,
      "আসামি": 3634,
      "সিটি": 3635,
      "ভূমি": 3636,
      "ধর্": 3637,
      "হওয়া": 3638,
      "বেগ": 3639,
      "কত": 3640,
      "দিয়েছে": 3641,
      "ফিক": 3642,
      "লাহ": 3643,
      "দেখে": 3644,
      "অবশ্য": 3645,
      "মিল": 3646,
      "নিয়োগ": 3647,
      "ব্যাপারে": 3648,
      "দাঁ": 3649,
      "জনকে": 3650,
      "পুরের": 3651,
      "রাজধান": 3652,
      "শনিবার": 3653,
      "ফার": 3654,
      "স্বাস্থ": 3655,
      "ফোন": 3656,
      "দক্ষিণ": 3657,
      "সাংবা": 3658,
      "স্থিতি": 3659,
      "সিং": 3660,
      "নানা": 3661,
      "ছোট": 3662,
      "ংস": 3663,
      "মৌ": 3664,
      "শুক্র": 3665,
      "পথ": 3666,
      "ধে": 3667,
      "ম্প": 3668,
      "তর": 3669,
      "সকালে": 3670,
      "বান": 3671,
      "আয়োজন": 3672,
      "ষ্ঠিত": 3673,
      "সবচেয়ে": 3674,
      "পারি": 3675,
      "আরে": 3676,
      "ঘটনার": 3677,
      "ইল": 3678,
      "উঠে": 3679,
      "ব্যাংক": 3680,
      "টিং": 3681,
      "ফলে": 3682,
      "গবে": 3683,
      "২৫": 3684,
      "কৃষ": 3685,
      "বাব": 3686,
      "মালিক": 3687,
      "চলছে": 3688,
      "০০": 3689,
      "১৪": 3690,
      "সম্ভব": 3691,
      "ধন": 3692,
      "দুর": 3693,
      "জানায়": 3694,
      "কন": 3695,
      "চো": 3696,
      "ীতি": 3697,
      "নির্বাচনে": 3698,
      "ুত": 3699,
      "লাশ": 3700,
      "স্বাস্থ্য": 3701,
      "তেই": 3702,
      "সাল": 3703,
      "প্রকল্প": 3704,
      "সৃ": 3705,
      "প্রয়োজন": 3706,
      "শুক্রবার": 3707,
      "য়াল": 3708,
      "রক্ষ": 3709,
      "এফ": 3710,
      "নিরাপত্ত": 3711,
      "র্জাতিক": 3712,
      "যাওয়ার": 3713,
      "আন্তর্জাতিক": 3714,
      "বিল": 3715,
      "শীল": 3716,
      "কেটে": 3717,
      "তেন": 3718,
      "বরা": 3719,
      "ii": 3720,
      "গুরুত্ব": 3721,
      "এখানে": 3722,
      "তাল": 3723,
      "যোগা": 3724,
      "তৃ": 3725,
      "যায়ী": 3726,
      "হাসি": 3727,
      "এলাকা": 3728,
      "১৮": 3729,
      "ধিক": 3730,
      "চিব": 3731,
      "রাখা": 3732,
      "ভিত": 3733,
      "পাশা": 3734,
      "যোগাযোগ": 3735,
      "স্যা": 3736,
      "তাম": 3737,
      "সভায়": 3738,
      "ঞ্চল": 3739,
      "অতি": 3740,
      "উচ্চ": 3741,
      "নির্মাণ": 3742,
      "মামলার": 3743,
      "ঠা": 3744,
      "পাশে": 3745,
      "সেটা": 3746,
      "শ্রে": 3747,
      "মেডি": 3748,
      "আহমেদ": 3749,
      "আত্ম": 3750,
      "নেওয়ার": 3751,
      "আলোচনা": 3752,
      "পৌর": 3753,
      "১৬": 3754,
      "করবে": 3755,
      "চলা": 3756,
      "কিন": 3757,
      "ায়া": 3758,
      "বাহ": 3759,
      "ইউনিয়নের": 3760,
      "কর্তৃ": 3761,
      "গাড়ি": 3762,
      "বাল": 3763,
      "নির্বাহী": 3764,
      "র্তি": 3765,
      "স্টি": 3766,
      "আরেক": 3767,
      "টন": 3768,
      "উপস্থিত": 3769,
      "ইং": 3770,
      "কর্মসূ": 3771,
      "সংঘ": 3772,
      "অনুযায়ী": 3773,
      "বাবা": 3774,
      "যুক্তরাষ্ট্র": 3775,
      "বৈঠ": 3776,
      "স্বী": 3777,
      "কেলে": 3778,
      "র্ঘ": 3779,
      "আসা": 3780,
      "মারা": 3781,
      "শোর": 3782,
      "হলেও": 3783,
      "বিশ্বকা": 3784,
      "ভিত্ত": 3785,
      "জামান": 3786,
      "হাই": 3787,
      "সহকারী": 3788,
      "মাস": 3789,
      "যুদ্ধ": 3790,
      "আন্দ": 3791,
      "পক্ষের": 3792,
      "প্রাথ": 3793,
      "অন্ত": 3794,
      "সংখ্যা": 3795,
      "ব্রা": 3796,
      "পরিক": 3797,
      "তৃত": 3798,
      "বিরোধী": 3799,
      "বিএনপি": 3800,
      "ণি": 3801,
      "প্রচার": 3802,
      "লীগ": 3803,
      "ায়ের": 3804,
      "প্রাথমিক": 3805,
      "সিরি": 3806,
      "মিনি": 3807,
      "আটক": 3808,
      "জির": 3809,
      "ফির": 3810,
      "আন্দোল": 3811,
      "যখন": 3812,
      "থাকবে": 3813,
      "স্কুল": 3814,
      "যেন": 3815,
      "হাসান": 3816,
      "দপ্ত": 3817,
      "অনুষ্ঠিত": 3818,
      "রিক": 3819,
      "পাশি": 3820,
      "খাল": 3821,
      "১৩": 3822,
      "পাশাপাশি": 3823,
      "এত": 3824,
      "নাই": 3825,
      "অবস্থান": 3826,
      "সন": 3827,
      "পর্যা": 3828,
      "র্ট": 3829,
      "কেই": 3830,
      "লাল": 3831,
      "শ্রমিক": 3832,
      "থানায়": 3833,
      "বোর্": 3834,
      "ঙ্গি": 3835,
      "মিত": 3836,
      "আছেন": 3837,
      "পথে": 3838,
      "সমস্যা": 3839,
      "বাজারে": 3840,
      "চয়": 3841,
      "উল্লেখ": 3842,
      "পরীক্ষ": 3843,
      "বাস্ত": 3844,
      "সহযোগ": 3845,
      "ওসি": 3846,
      "নিয়ন্ত্র": 3847,
      "ক্ষতি": 3848,
      "বাইরে": 3849,
      "বাসী": 3850,
      "সিক": 3851,
      "নির্দেশ": 3852,
      "পরিকল্প": 3853,
      "সিড": 3854,
      "অভিযান": 3855,
      "বঙ্গ": 3856,
      "ভারপ্রাপ্ত": 3857,
      "দলীয়": 3858,
      "থেকেই": 3859,
      "হামলা": 3860,
      "চাইলে": 3861,
      "),": 3862,
      "্যাল": 3863,
      "বিদ্যু": 3864,
      "নেতৃত": 3865,
      "মহা": 3866,
      "ৌশ": 3867,
      "কর্মী": 3868,
      "ম্যাচে": 3869,
      "আদালতে": 3870,
      "খেলা": 3871,
      "কমিটি": 3872,
      "থায়": 3873,
      "ারি": 3874,
      "পরিবারের": 3875,
      "খালে": 3876,
      "স্ট্রে": 3877,
      "অ্যান্ড": 3878,
      "দৃ": 3879,
      "এল": 3880,
      "বই": 3881,
      "াজ": 3882,
      "ভারত": 3883,
      "গুলি": 3884,
      "জীব": 3885,
      "সমি": 3886,
      "পরিষদের": 3887,
      "জ্ঞা": 3888,
      "পরীক্ষা": 3889,
      "মর": 3890,
      "মেডিকেল": 3891,
      "আবেদন": 3892,
      "দন": 3893,
      "বিভাগ": 3894,
      "কাছ": 3895,
      "২২": 3896,
      "মাঠে": 3897,
      "পরিবর্ত": 3898,
      "পরিবার": 3899,
      "বেড়ে": 3900,
      "সময়ে": 3901,
      "ইয়া": 3902,
      "উল": 3903,
      "জানিয়েছেন": 3904,
      "য়েন্": 3905,
      "জীবন": 3906,
      "করলে": 3907,
      "খেল": 3908,
      "করবেন": 3909,
      "দীর্ঘ": 3910,
      "ক্তির": 3911,
      "উন্নয়ন": 3912,
      "..": 3913,
      "নিজ": 3914,
      "বর্": 3915,
      "হাত": 3916,
      "চ্য": 3917,
      "জীবী": 3918,
      "গার": 3919,
      "ঢাকার": 3920,
      "প্রতিনি": 3921,
      "গি": 3922,
      "মিটার": 3923,
      "বিপক্ষে": 3924,
      "কাজে": 3925,
      "সুর": 3926,
      "জ্জামান": 3927,
      "গী": 3928,
      "কেন্দ্রীয়": 3929,
      "নগ": 3930,
      "জন্ম": 3931,
      "ড়াই": 3932,
      "সত্য": 3933,
      "সৌ": 3934,
      "তরু": 3935,
      "কোন": 3936,
      "খর": 3937,
      "সর্": 3938,
      "ভাঙ": 3939,
      "প্রিয়": 3940,
      "াই": 3941,
      "জুর": 3942,
      "সর্ব": 3943,
      "১৭": 3944,
      "আপনার": 3945,
      "সুবি": 3946,
      "নেন": 3947,
      "যুক্তি": 3948,
      "ফিরে": 3949,
      "দলে": 3950,
      "জিয়া": 3951,
      "যাওয়া": 3952,
      "সপ্ত": 3953,
      "ওয়ান": 3954,
      "৪০": 3955,
      "বাড়িতে": 3956,
      "ভর্তি": 3957,
      "পোরে": 3958,
      "করপোরে": 3959,
      "সহায়": 3960,
      "চিকিৎস": 3961,
      "আশা": 3962,
      "পরিবেশ": 3963,
      "মহাস": 3964,
      "পাড়া": 3965,
      "বিমান": 3966,
      "মিয়া": 3967,
      "জ্য": 3968,
      "অবস্থায়": 3969,
      "দর্শক": 3970,
      "জানানো": 3971,
      "শর": 3972,
      "বাদী": 3973,
      "সন্ত": 3974,
      "যাঁ": 3975,
      "কারও": 3976,
      "মামলায়": 3977,
      "সূত্রে": 3978,
      "সাংসদ": 3979,
      "মেয়": 3980,
      "ওর": 3981,
      "কাউন্": 3982,
      "নীর": 3983,
      "গড়ে": 3984,
      "মাঝ": 3985,
      "জল": 3986,
      "পর্যায়ে": 3987,
      "বিশ্ববিদ্যালয়": 3988,
      "স্টার": 3989,
      "মত": 3990,
      "ড়ার": 3991,
      "আয়ো": 3992,
      "রকম": 3993,
      "স্ত্রী": 3994,
      "শহরের": 3995,
      "বাংলাদেশে": 3996,
      "্বে": 3997,
      "দর্শন": 3998,
      "ফাঁ": 3999,
      "অধ্যা": 4000,
      "জড়": 4001,
      "সান": 4002,
      "তাহলে": 4003,
      "মৃত্যু": 4004,
      "বিক্রি": 4005,
      "দ্রুত": 4006,
      "সম্পর্কে": 4007,
      "নিরাপত্তা": 4008,
      "ঘণ্": 4009,
      "ইউনিয়ন": 4010,
      "আগের": 4011,
      "থাকতে": 4012,
      "বর্তী": 4013,
      "এগিয়ে": 4014,
      "পাঠানো": 4015,
      "প্রত্যা": 4016,
      "জাহা": 4017,
      "বছরে": 4018,
      "২৪": 4019,
      "চিকিৎসা": 4020,
      "অপরা": 4021,
      "ইনি": 4022,
      "রোধ": 4023,
      "মানব": 4024,
      "মী": 4025,
      "শুর": 4026,
      "ন্ত্রা": 4027,
      "গেল": 4028,
      "সিলে": 4029,
      "নগর": 4030,
      "প্রতিনিধি": 4031,
      "প্রস্ত": 4032,
      "সেটি": 4033,
      "ধ্ব": 4034,
      "ক্ষমতা": 4035,
      "য়াম": 4036,
      "’।": 4037,
      "২১": 4038,
      "গ্রামে": 4039,
      "িক্ত": 4040,
      "বলতে": 4041,
      "যোগ্য": 4042,
      "রাজধানীর": 4043,
      "মস": 4044,
      "মার্চ": 4045,
      "খোঁ": 4046,
      "সারা": 4047,
      "অথ": 4048,
      "কর্মসূচি": 4049,
      "সংগঠন": 4050,
      "জেন": 4051,
      "মাসে": 4052,
      "প্রস্তা": 4053,
      "কাণ্ড": 4054,
      "দণ্ড": 4055,
      "হর": 4056,
      "গেলে": 4057,
      "কোচ": 4058,
      "বাকি": 4059,
      "বিকেলে": 4060,
      "পদে": 4061,
      "দুপুরে": 4062,
      "নৌ": 4063,
      "স্প": 4064,
      "জঙ্গি": 4065,
      "যোগে": 4066,
      "উঠ": 4067,
      "তিনটি": 4068,
      "ব্যাংকের": 4069,
      "সৈ": 4070,
      "লোকজন": 4071,
      "পোশা": 4072,
      "রোগ": 4073,
      "কারখান": 4074,
      "খেলো": 4075,
      "সবার": 4076,
      "খেলোয়া": 4077,
      "খি": 4078,
      "পনা": 4079,
      "বসে": 4080,
      "মাহমু": 4081,
      "জমা": 4082,
      "২৩": 4083,
      "বৃদ্ধ": 4084,
      "নাল": 4085,
      "শ্রী": 4086,
      "উইকেট": 4087,
      "অধ্যাপক": 4088,
      "শুন": 4089,
      "ওয়ার্ড": 4090,
      "দিনে": 4091,
      "অস্ত্র": 4092,
      "ঙ্কা": 4093,
      "তিরিক্ত": 4094,
      "সন্ত্রা": 4095,
      "ন্দা": 4096,
      "মেয়র": 4097,
      "ক্যা": 4098,
      "যৌ": 4099,
      "শ্চি": 4100,
      "নায়ক": 4101,
      "[bn]": 4102
    },
    "merges": [
      "t h",
      "i n",
      "th e",
      "a n",
      "e r",
      "o u",
      "r e",
      "o n",
      "a t",
      "e d",
      "e n",
      "t o",
      "in g",
      "an d",
      "i s",
      "a s",
      "a l",
      "o r",
      "o f",
      "a r",
      "i t",
      "e s",
      "h e",
      "s t",
      "l e",
      "o m",
      "s e",
      "b e",
      "a d",
      "o w",
      "l y",
      "c h",
      "w h",
      "th at",
      "y ou",
      "l i",
      "v e",
      "a c",
      "t i",
      "l d",
      "m e",
      "w as",
      "g h",
      "i d",
      "l l",
      "w i",
      "en t",
      "f or",
      "a y",
      "r o",
      "v er",
      "i c",
      "h er",
      "k e",
      "h is",
      "n o",
      "u t",
      "u n",
      "i r",
      "l o",
      "w e",
      "r i",
      "h a",
      "wi th",
      "gh t",
      "ou t",
      "i m",
      "i on",
      "al l",
      "a b",
      "on e",
      "n e",
      "g e",
      "ou ld",
      "t er",
      "m o",
      "h ad",
      "c e",
      "s he",
      "g o",
      "s h",
      "u r",
      "a m",
      "s o",
      "p e",
      "m y",
      "d e",
      "a re",
      "b ut",
      "om e",
      "f r",
      "the r",
      "f e",
      "s u",
      "d o",
      "c on",
      "t e",
      "a in",
      "er e",
      "p o",
      "i f",
      "the y",
      "u s",
      "a g",
      "t r",
      "n ow",
      "ou n",
      "th is",
      "ha ve",
      "no t",
      "s a",
      "i l",
      "u p",
      "th ing",
      "fr om",
      "a p",
      "h im",
      "ac k",
      "at ion",
      "an t",
      "ou r",
      "o p",
      "li ke",
      "u st",
      "es s",
      "b o",
      "o k",
      "u l",
      "in d",
      "e x",
      "c om",
      "s ome",
      "the re",
      "er s",
      "c o",
      "re s",
      "m an",
      "ar d",
      "p l",
      "w or",
      "w ay",
      "ti on",
      "f o",
      "c a",
      "w ere",
      "b y",
      "at e",
      "p ro",
      "t ed",
      "oun d",
      "ow n",
      "w ould",
      "t s",
      "wh at",
      "q u",
      "al ly",
      "i ght",
      "c k",
      "g r",
      "wh en",
      "v en",
      "c an",
      "ou gh",
      "in e",
      "en d",
      "p er",
      "ou s",
      "o d",
      "id e",
      "k now",
      "t y",
      "ver y",
      "s i",
      "a k",
      "wh o",
      "ab out",
      "i ll",
      "the m",
      "es t",
      "re d",
      "y e",
      "c ould",
      "on g",
      "you r",
      "the ir",
      "e m",
      "j ust",
      "o ther",
      "in to",
      "an y",
      "wh i",
      "u m",
      "t w",
      "as t",
      "d er",
      "d id",
      "i e",
      "be en",
      "ac e",
      "in k",
      "it y",
      "b ack",
      "t ing",
      "b r",
      "mo re",
      "a ke",
      "p p",
      "the n",
      "s p",
      "e l",
      "u se",
      "b l",
      "sa id",
      "o ver",
      "ge t",
      "ɑ ː",
      "i ː",
      "u ː",
      "ɜ ː",
      "ɔ ː",
      "o ː",
      "e ɪ",
      "o ʊ",
      "a ɪ",
      "a ʊ",
      "ɔ ɪ",
      "d ʒ",
      "t ʃ",
      "ɪ ŋ",
      "ᵻ d",
      "ˈ iː",
      "ˌ iː",
      "ˈ ɪ",
      "ˌ ɪ",
      "ˈ eɪ",
      "ˌ eɪ",
      "ˈ ɛ",
      "ˌ ɛ",
      "ˈ æ",
      "ˌ æ",
      "ˈ ɑː",
      "ˌ ɑː",
      "ˈ ɔː",
      "ˌ ɔː",
      "oː ɹ",
      "ˈ oːɹ",
      "ˌ oːɹ",
      "ˈ oʊ",
      "ˌ oʊ",
      "ˈ ʊ",
      "ˌ ʊ",
      "ˈ uː",
      "ˌ uː",
      "ˈ ɜː",
      "ˌ ɜː",
      "ˈ ʌ",
      "ˌ ʌ",
      "ˈ aɪ",
      "ˌ aɪ",
      "ˈ aʊ",
      "ˌ aʊ",
      "ˈ ɔɪ",
      "ˌ ɔɪ",
      "ˈ ɚ",
      "ˌ ɐ",
      "য ়",
      "া র",
      "ে র",
      "্ র",
      "্ য",
      "া ন",
      "ক র",
      "ে ন",
      "্ ত",
      "য় ে",
      "ব ি",
      "ব া",
      "ন ি",
      "ক ে",
      "া ল",
      "প ্র",
      "ত ি",
      "া য়",
      "ব ে",
      "া ম",
      "ট ি",
      "ত ে",
      "ছ ে",
      "ত া",
      "ল া",
      "র ্",
      "স ্",
      "ড ়",
      "র া",
      "ল ে",
      "ক া",
      "ন া",
      "প র",
      "দ ে",
      "ক ্",
      "দ ি",
      "ন ে",
      "ক ার",
      "ম া",
      "ক্ ষ",
      "ু ল",
      "দ ের",
      "জ ন",
      "ম ি",
      "ু র",
      "প া",
      "্য া",
      "ন ্",
      "স ে",
      "য় া",
      "ক ি",
      "কর ে",
      "স া",
      "এ ক",
      "ন ্ত",
      "স ম",
      "স ি",
      "শ ি",
      "গ ে",
      "ভ া",
      "ট া",
      "ল েন",
      "ব ার",
      "হ া",
      "ছ ি",
      "থ া",
      "ষ ্",
      "ি ত",
      "দ ্",
      "ছ েন",
      "ঙ ্",
      "হ য়ে",
      "র ে",
      "য় ার",
      "ি ক",
      "থ ে",
      "তা ঁ",
      "ম ে",
      "ম ান",
      "ন ের",
      "্ ব",
      "জ ে",
      "দে শ",
      "ক ো",
      "থে কে",
      "হ য়",
      "দ ু",
      "ক ্ত",
      "ভ ি",
      "প ার",
      "স ং",
      "ব ্য",
      "ো গ",
      "ত ্র",
      "জ ান",
      "পর ি",
      "্ ম",
      "ল ি",
      "চ ্",
      "গ ্র",
      "ি র",
      "কর া",
      "ার ্",
      "প্র তি",
      "ি য়ে",
      "ও য়া",
      "ট ে",
      "স ্ত",
      "জ া",
      "স্ থ",
      "এ ই",
      "ল ো",
      "ন ো",
      "অ ন",
      "ধ ্য",
      "গ ত",
      "ব লেন",
      "শ ে",
      "ম ু",
      "্ প",
      "ী য়",
      "জ ি",
      "শ া",
      "য া",
      "ক াল",
      "আ র",
      "উ প",
      "ী র",
      "হয়ে ছে",
      "দ া",
      "ত ার",
      "ম ো",
      "নি র্",
      "য োগ",
      "র ি",
      "হ ি",
      "স ু",
      "দ্ ধ",
      "নি য়ে",
      "চ ে",
      "ক ্র",
      "্ ড",
      "প ুর",
      "স ব",
      "ছি ল",
      "ড় া",
      "তি নি",
      "ড ি",
      "হ বে",
      "খ া",
      "স ঙ্",
      "্য ান",
      "খ ে",
      "জন ্য",
      "কর ্ম",
      "জ ার",
      "ন ার",
      "ঞ ্",
      "ক ের",
      "ন্ত ্র",
      "ট ্র",
      "েন ্",
      "সঙ্ গে",
      "ল ার",
      "স র",
      "য ে",
      "প ে",
      "চ ার",
      "ছ া",
      "ষ্ ঠ",
      "ু ন",
      "বা ং",
      "দি য়ে",
      "ড় ে",
      "ও য়ার",
      "স হ",
      "ধ ান",
      "চ া",
      "ট ার",
      "চ ি",
      "বাং লা",
      "ব লে",
      "অ ব",
      "ত ো",
      "দি ন",
      "খ ান",
      "কর েন",
      "অ ভি",
      "এ র",
      "দ ্য",
      "র ো",
      "তাঁ র",
      "গ া",
      "আ ম",
      "প ি",
      "ম ধ্য",
      "দ ল",
      "ুল ি",
      "য় ের",
      "এক টি",
      "ো র",
      "শ ্",
      "অন ু",
      "ব র",
      "ত ্ত",
      "প ্ত",
      "সম ্",
      "চ্ ছে",
      "চ াল",
      "ন াম",
      "আ ই",
      "শ ু",
      "দ ্র",
      "ব্য ব",
      "ব ল",
      "বাংলা দেশ",
      "র ের",
      "কো নো",
      "কর তে",
      "ব ্যা",
      "ছি লেন",
      "মধ্য ে",
      "াল ে",
      "শে ষ",
      "য ু",
      "শি ক্ষ",
      "ন্ ন",
      "ব ছ",
      "ব ন্",
      "২ ০",
      "ব ং",
      "ভ ার",
      "সর কার",
      "খ ন",
      "এ বং",
      "য ায়",
      "। ’",
      "ঘ ট",
      "ল ী",
      "ক্ত ি",
      "জ ্",
      "প্র থ",
      "সম য়",
      "স াম",
      "গ ুল",
      "এ ম",
      "হ ার",
      "নির্ বা",
      "বি ষ",
      "স দ",
      "ঙ্ গ",
      "প ুলি",
      "ড় ি",
      "র ু",
      "ধ ার",
      "নি য়",
      "পুলি শ",
      "টি র",
      "স ের",
      "গ ের",
      "প্রথ ম",
      "ক থা",
      "হ ত",
      "ুর ু",
      "ক্ষ ে",
      "ভা বে",
      "ছ ু",
      "ব ো",
      "গ্র াম",
      "শ ্ব",
      "ান ্ত",
      "ও য়",
      "ম ন্ত্র",
      "প তি",
      "জ ের",
      "চ ল",
      "উপ জে",
      "ল াম",
      "র্ থ",
      "ন্ত ু",
      "কর ্ত",
      "স্ থা",
      "ল ্প",
      "গত কাল",
      "ও ই",
      "ফ ি",
      "ই উ",
      "থা ক",
      "ব ু",
      "গ ো",
      "ান ি",
      "আ লো",
      "স েন",
      "কি ন্তু",
      "বি দ্য",
      "চ িত",
      "বা স",
      "শ ন",
      "বি শ্ব",
      "হ ো",
      "ার্ থ",
      "ষ্ঠ ান",
      "রা জ",
      "ত ীয়",
      "ই স",
      "দু ই",
      "ম ার",
      "ন য়",
      "শ ্র",
      "ন ায়",
      "ট ের",
      "হা স",
      "পার ে",
      "ত বে",
      "ম াম",
      "কা জ",
      "এ ন",
      "এ লা",
      "দে ওয়া",
      "অ নে",
      "প্র া",
      "দ ী",
      "ং শ",
      "ফ ে",
      "ক ু",
      "কি ছু",
      "ঢ া",
      "নির্বা চ",
      "আ জ",
      "উ দ্",
      "স্থ ান",
      "ন ী",
      "প্র ধান",
      "াম ী",
      "স ার",
      "তি ন",
      "ধ ি",
      "ক মি",
      "ু ষ",
      "ল ্",
      "গুল ো",
      "হ লে",
      "ব েন",
      "স ্য",
      "আ গে",
      "বন্ ধ",
      "ণ ে",
      "দি কে",
      "হ চ্ছে",
      "ক ম",
      "পর ্য",
      "স ো",
      "হা জার",
      "স ভা",
      "হ ী",
      "ব ৃ",
      "জান ান",
      "ার্থ ী",
      "ত ের",
      "ফ া",
      "টা কা",
      "১ ০",
      "বিদ্য াল",
      "হ াম",
      "স্ ব",
      "স্ ট",
      "স ূ",
      "শ ুরু",
      "ান া",
      "আ মি",
      "ক্র ি",
      "কর্ম কর্ত",
      "তি ক",
      "ল ের",
      "ভ ে",
      "দ ার",
      "জ্ ঞ",
      "াল ো",
      "ৃ ত",
      "গে ছে",
      "কর ার",
      "বছ র",
      "তাঁ দের",
      "করে ছেন",
      "আ ব",
      "এ স",
      "ত ু",
      "ব ্র",
      "স্ বা",
      "দ ায়",
      "আ ছে",
      "ক ায়",
      "ই ন",
      "জ ী",
      "ধার ণ",
      "ইস লাম",
      "ম ্ব",
      "ড ে",
      "দ েন",
      "খান ে",
      "প ো",
      "আ স",
      "বে শি",
      "তি র",
      "নে ই",
      "ষ ণ",
      "আ মা",
      "াল ের",
      "এ খন",
      "মান ুষ",
      "বা দ",
      "ান ের",
      "ভি ন্ন",
      "আর ও",
      "য় ো",
      "ন্ দ",
      "খ ু",
      "ষ্ ট",
      "অনে ক",
      "র হ",
      "মন্ত্র ী",
      "তাঁ রা",
      "প ূ",
      "গ িয়ে",
      "বে শ",
      "ম ্যা",
      "বা ই",
      "জ াম",
      "য ান",
      "করে ছে",
      "গ র",
      "আম রা",
      "য়ে ছে",
      "ল ায়",
      "কার ী",
      "বর ্ত",
      "ূ ল",
      "ন ত",
      "মি ক",
      "ধ ী",
      "সভা পতি",
      "আ ল",
      "দ ুল",
      "ধ া",
      "আ দ",
      "আ হ",
      "্ ট",
      "বি ভিন্ন",
      "হ ে",
      "ম ন",
      "কর্মকর্ত া",
      "তা দের",
      "বিষ য়",
      "দে খা",
      "হো সেন",
      "ষ্ ট্র",
      "দ ক",
      "হি সে",
      "েন্ দ্র",
      "রহ মান",
      "আ গ",
      "সে ই",
      "হিসে বে",
      "জ ু",
      "রা ষ্ট্র",
      "ধ র",
      "ব ের",
      "সম ্প",
      "প ক্ষ",
      "অন ্য",
      "অভি যোগ",
      "পর্য ন্ত",
      "ান ো",
      "শ ী",
      "সা ং",
      "বা জার",
      "ছা ড়া",
      "্যান ্ড",
      "সদ স্য",
      "কা ছে",
      "ভ ালো",
      "গ ণ",
      "মা ধ্য",
      "ব ড়",
      "ঁ চ",
      "ম তো",
      "প ্",
      "ঠ ে",
      "নত ুন",
      "ক ৃ",
      "বা ড়ি",
      "কার ্য",
      "তার া",
      "ো ট",
      "ছ বি",
      "দল ের",
      "আমা দের",
      "পর ে",
      "পা ত",
      "ক ী",
      "াল ি",
      "ক্ষ া",
      "ঢা কা",
      "গ ু",
      "ব ন",
      "র্ ণ",
      "দে খ",
      "দেশ ের",
      "ম ের",
      "বি এন",
      "ম ার্",
      "বে দ",
      "হ ন",
      "য়ে ক",
      "প াল",
      "এম ন",
      "ক েন্দ্র",
      "ঘট না",
      "দু র্",
      "ম্ব র",
      "উ ত্ত",
      "যু ক্ত",
      "মু খ",
      "ট ু",
      "ছা ত্র",
      "ম ূল",
      "গ ঠ",
      "পরি চাল",
      "চে য়ে",
      "তাঁ কে",
      "ব ী",
      "র য়েছে",
      "জে লা",
      "থ ান",
      "ক য়েক",
      "বি ভা",
      "প্র ে",
      "ত্র ে",
      "বা ড়",
      "р ж",
      "আদ াল",
      "গ ঞ্",
      "মা ণ",
      "ম ্যান",
      "২০ ১",
      "আ ওয়",
      "স ী",
      "দ্ধ ে",
      "আওয় ামী",
      "কার ণে",
      "জান া",
      "আ ট",
      "আম ার",
      "ণ ্ড",
      "ব্যব স্থা",
      "র ণ",
      "দ র্",
      "প ড়ে",
      "দা বি",
      "প ড়",
      "প্র ায়",
      "লী গের",
      "হ তে",
      "স কাল",
      "প্র ি",
      "ত ্ব",
      "জা তীয়",
      "সা ধারণ",
      "ও পর",
      "ক লে",
      "অ ংশ",
      "ম নে",
      "স মা",
      "বিশ্ব বিদ্যাল",
      "প ির",
      "গ্র ে",
      "অ র্থ",
      "ভা ব",
      "র ান",
      "য় ন",
      "ফ ো",
      "চা ই",
      "ধ রে",
      "সরকার ি",
      "উপজে লা",
      "১ ৯",
      "দি তে",
      "েন্ ট",
      "বি রু",
      "দেশ ে",
      "ত ্য",
      "বিরু দ্ধে",
      "প্র কা",
      "এ সে",
      "গ্র হ",
      "উপজে লার",
      "এ সব",
      "আ প",
      "শ ো",
      "ম াল",
      "নে তা",
      "থ ্য",
      "অ ধি",
      "অ ্যা",
      "পা ঁচ",
      "পা ঠ",
      "তা ই",
      "প্রতি ষ্ঠান",
      "বাংলাদেশ ের",
      "ব্য ক্তি",
      "আই ন",
      "লা খ",
      "জান িয়ে",
      "ব ৈ",
      "h e",
      "স ালে",
      "অনু ষ্ঠান",
      "প ের",
      "ত ৈ",
      "ত থ্য",
      "য়ো জন",
      "ফ ু",
      "এ তে",
      "ক ্য",
      "ভ ূ",
      "স ড়",
      "হাস পাত",
      "সম্ পা",
      "ী দের",
      "ট ্ট",
      "ব্যা ং",
      "স্ত ্র",
      "পর ী",
      "ব ্",
      "ান ্",
      "বিষ য়ে",
      "ব লা",
      "চে য়ার",
      "ড া",
      "ধ ু",
      "প ু",
      "হ লো",
      "ঘ া",
      "দ ো",
      "র্ ষ",
      "প্র শ্",
      "হ ু",
      "র ্ত",
      "ঘ ো",
      "বার ের",
      "খ নো",
      "ি তে",
      "উ ই",
      "এক জন",
      "গ্রাম ের",
      "এলা কায়",
      "কে ল",
      "বি চার",
      "পা ওয়া",
      "পার েন",
      "মাম লা",
      "ার া",
      "স ন্",
      "সা ই",
      "চ ট্ট",
      "নির্বাচ ন",
      "প ত্র",
      "প ক্ষে",
      "ভ ব",
      "রা জন",
      "নে ওয়া",
      "ইউ নিয়",
      "শ ্য",
      "শা স",
      "রা খ",
      "সম্পা দক",
      "ট ো",
      "লা ই",
      "ষ্ টি",
      "চি কি",
      "বি র",
      "স্ত া",
      "প ৌ",
      "দ র",
      "ক দের",
      "শ তা",
      "৩ ০",
      "ঞ্ চ",
      "নি র",
      "মাধ্য মে",
      "শি ল্প",
      "শিক্ষ ার্থী",
      "বছ রের",
      "ফ ল",
      "স্থান ীয়",
      "পে য়ে",
      "বি শেষ",
      "কে ট",
      "আলো কে",
      "কর ি",
      "এক টা",
      "১ ১",
      "প্র ক",
      "চ ৌ",
      "এ টা",
      "চিকি ৎ",
      "লো ক",
      "দ ন্ত",
      "আ ন",
      "দু টি",
      "জ য়",
      "শি শু",
      "ব ক্ত",
      "জন ের",
      "অ প",
      "কো টি",
      "সে খানে",
      "ঠ িক",
      "ক েন",
      "উ ৎ",
      "চ না",
      "চ্ চ",
      "প্ত ার",
      "হ ওয়ার",
      "১ ২",
      "গ্রে প্তার",
      "তৈ রি",
      "ষণ া",
      "ব্যব হার",
      "র্ ব",
      "ড় িয়ে",
      "ত ায়",
      "ী রা",
      "উ ন্ন",
      "দ্ বি",
      "আ বার",
      "প্র ার্থী",
      "মা ত্র",
      "ষ্ টা",
      "স ালের",
      "ৈ তিক",
      "প দ",
      "লে ও",
      "ত দন্ত",
      "৫ ০",
      "চেয়ার ম্যান",
      "ার ে",
      "স ায়",
      "সা বে",
      "উদ্ দিন",
      "ধর নের",
      "উ ল্",
      "ধ ুর",
      "বেদ ন",
      "উ ন্",
      "য ো",
      "বিএন পির",
      "ক্ স",
      "শ ের",
      "উত্ত র",
      "সং খ",
      "হয় নি",
      ") ।",
      "ম ্",
      "এক ই",
      "খ ো",
      "যা বে",
      "ঘট নায়",
      "ফ ের",
      "ম্যা চ",
      "দ ূ",
      "দে ওয়ার",
      "মে ল",
      "যা ত্র",
      "পূ র্ণ",
      "খু ব",
      "হ ান",
      "শ নের",
      "নি শ্",
      "কের া",
      "শ হ",
      "ল ু",
      "ভ ো",
      "ব য়",
      "হত ্যা",
      "ত ন",
      "নি তে",
      "চৌ ধুর",
      "এ কা",
      "রা তে",
      "কে উ",
      "নি জে",
      "গঞ্ জ",
      "বি ক",
      "চিত ্র",
      "বার ্",
      "আব দুল",
      "ান োর",
      "ত ্যা",
      "তু লে",
      "স্ ট্র",
      "এ বার",
      "প ানি",
      "স্ টে",
      "প ক",
      "রা ত",
      "i n",
      "সম্প র্",
      "হ ক",
      "চট্ট গ্রাম",
      "সা ত",
      "ু য়ার",
      "পরিচাল ক",
      "ত খন",
      "দিয়ে ছেন",
      "িত ্ব",
      "কার ণ",
      "শিক্ষ া",
      "্য ের",
      "ক্ষে ত্রে",
      "ক ল",
      "কর ছে",
      "য দি",
      "্ম দ",
      "ুর ি",
      "এর পর",
      "য় ান",
      "আ লী",
      "২০ ০",
      "পার ্",
      "থান ার",
      "প্র শাস",
      "গ ান",
      "পরি ষ",
      "১ ৫",
      "দে য়",
      "জ ায়",
      "ণ ের",
      "দ্ধ ার",
      "সরকার ের",
      "প ন",
      "দ ক্ষ",
      "কর ছেন",
      "স্ ক",
      "গ ুরু",
      "মা হ",
      "থা কে",
      "চ লে",
      "ঙ্গ ল",
      "ই ন্",
      "র ায়",
      "্য ে",
      "আল ম",
      "বিষয় টি",
      "ছে লে",
      "শতা ংশ",
      "অ র্",
      "সাবে ক",
      "ম ৃত",
      "মু ক্তি",
      "স্থ ায়",
      "চ ু",
      "জ র",
      "ছ য়",
      "শে খ",
      "সু যোগ",
      "বৃ হ",
      "বি জ্ঞ",
      "প্রা প্ত",
      "াম ্প",
      "চে ষ্টা",
      "টা ই",
      "নি হত",
      "সং বাদ",
      "শা হ",
      "প ান",
      "ক্ষ ম",
      "দি নের",
      "সি দ্ধ",
      "লে খ",
      "বক্ত ব্য",
      "ত ী",
      "থ ি",
      "চ্ ছেন",
      "পুলিশ ের",
      "ধী ন",
      "র্ জা",
      "কার্য াল",
      "উ দ্ধার",
      "ভ ু",
      "নি রা",
      "কলে জ",
      "ত ্",
      "্য ার",
      "t he",
      "খ বর",
      "কি স্ত",
      "টি তে",
      "শু ধু",
      "ও য়ে",
      "সম্ মেল",
      "সাম নে",
      "আ সাম",
      "ম য়",
      "বলে ছেন",
      "বি রো",
      "ফ ্র",
      "চৌধুর ী",
      "ক াম",
      "হাম ্মদ",
      "শিক্ষ ক",
      "াল া",
      "নি ক",
      "আ শ",
      "মানুষ ের",
      "ফ র",
      "ল ক্ষ",
      "প্রকা শ",
      "ধ ্যা",
      "দ াম",
      "a n",
      "দি ক",
      "সি র",
      "বি ত",
      "ঘো ষণা",
      "ট্র া",
      "স্থ ি",
      "পুর ে",
      "ম ঙ্গল",
      "ঠ ি",
      "শেষ ে",
      "বর্ত মান",
      "জ মি",
      "সিদ্ধ ান্ত",
      "গুল োর",
      "নি জের",
      "এ টি",
      "গো ল",
      "স ার্",
      "প ণ",
      "দ শ",
      "পা কিস্ত",
      "থা কা",
      "আ ত",
      "ম নো",
      "কি ং",
      "হা তে",
      "বি শ্",
      "সং গঠ",
      "এলা কার",
      "ল ্যান্ড",
      "বিভা গের",
      "রো ব",
      "নার ী",
      "সো ম",
      "পুর ো",
      "বিশ্ববিদ্যাল য়ের",
      "জ ো",
      "কার া",
      "স্ পতি",
      "বা য়",
      "বৃহ স্পতি",
      "সদ র",
      "নাম ের",
      "আগ ামী",
      "ভা গ",
      "আ ন্ত",
      "নী তি",
      "সম র্থ",
      "স্থ িত",
      "বা হি",
      "প ত্ত",
      "ঙ্ গা",
      "ট ায়",
      "ণ ্",
      "রে খে",
      "ফু ট",
      "প্রশ্ ন",
      "ওয় ায়",
      "দর্ শ",
      "ব স",
      "ো ল",
      "্য ু",
      "শ াল",
      "বৃহস্পতি বার",
      "ভা ই",
      "শ ার",
      "ত ুল",
      "ক্ লা",
      "প্রধান মন্ত্রী",
      "চ র",
      "ফ ুল",
      "ী ন",
      "ত ম",
      "উ দ্য",
      "ভার তের",
      "দায় িত্ব",
      "না ট",
      "সা ড়ে",
      "এ খনো",
      "বু ধ",
      "নিশ্ চিত",
      "ু ক",
      "ড ের",
      "হয়ে ছিল",
      "ুয়ার ি",
      "হ ের",
      "আ হত",
      "সোম বার",
      "জান তে",
      "বে লা",
      "দ ান",
      "ঘ টে",
      "সূ ত্র",
      "জ িত",
      "হয়ে ছেন",
      "রোব বার",
      "ব্যব সায়",
      "মো ট",
      "ক্র ম",
      "হাসপাত ালে",
      "মঙ্গল বার",
      "যা চ্ছে",
      "শ নি",
      "বা ঁ",
      "বুধ বার",
      "দক্ষ ি",
      "সড় ক",
      "অনুষ্ঠান ে",
      "স ভ",
      "গ ্",
      "ক ান",
      "ণ াল",
      "কমি টির",
      "যে তে",
      "ই তি",
      "মে য়ে",
      "e r",
      "স্ কার",
      "আহ মে",
      "আদাল ত",
      "রাজন ৈতিক",
      "মো হাম্মদ",
      "স বাই",
      "বন্ধ ু",
      "েন ে",
      "ভ োট",
      "দ্বি তীয়",
      "দে শি",
      "মন্ত্র ণাল",
      "ন ম্বর",
      "নাম ে",
      "গ্রহ ণ",
      "ভা ষ",
      "আসাম ি",
      "সি টি",
      "ভূ মি",
      "ধ র্",
      "হ ওয়া",
      "বে গ",
      "ক ত",
      "দিয়ে ছে",
      "ফ িক",
      "লা হ",
      "দে খে",
      "অব শ্য",
      "মি ল",
      "নিয় োগ",
      "ব্যা পারে",
      "দা ঁ",
      "জন কে",
      "পুর ের",
      "রাজ ধান",
      "শনি বার",
      "ফ ার",
      "স্বা স্থ",
      "ফো ন",
      "দক্ষি ণ",
      "সাং বা",
      "স্থি তি",
      "সি ং",
      "ন ানা",
      "ছ োট",
      "ং স",
      "ম ৌ",
      "শু ক্র",
      "প থ",
      "ধ ে",
      "ম ্প",
      "ত র",
      "সকাল ে",
      "ব ান",
      "আ য়োজন",
      "ষ্ঠ িত",
      "সব চেয়ে",
      "পার ি",
      "আ রে",
      "ঘট নার",
      "ই ল",
      "উ ঠে",
      "ব্যাং ক",
      "টি ং",
      "ফ লে",
      "গ বে",
      "২ ৫",
      "কৃ ষ",
      "বা ব",
      "মাল িক",
      "চল ছে",
      "০ ০",
      "১ ৪",
      "সম্ ভব",
      "ধ ন",
      "দ ুর",
      "জান ায়",
      "ক ন",
      "চ ো",
      "ী তি",
      "নির্বাচ নে",
      "ু ত",
      "লা শ",
      "স্বাস্থ ্য",
      "তে ই",
      "স াল",
      "প্রক ল্প",
      "স ৃ",
      "প্র য়োজন",
      "শুক্র বার",
      "য় াল",
      "র ক্ষ",
      "এ ফ",
      "নিরা পত্ত",
      "র্জা তিক",
      "যা ওয়ার",
      "আন্ত র্জাতিক",
      "r e",
      "বি ল",
      "শী ল",
      "কে টে",
      "ত েন",
      "ব রা",
      "i i",
      "গুরু ত্ব",
      "এ খানে",
      "ত াল",
      "যোগ া",
      "ত ৃ",
      "যায় ী",
      "হা সি",
      "এলা কা",
      "১ ৮",
      "ধ িক",
      "চি ব",
      "রা খা",
      "ভ িত",
      "পা শা",
      "যোগা যোগ",
      "স ্যা",
      "ত াম",
      "সভ ায়",
      "ঞ্ চল",
      "অ তি",
      "উ চ্চ",
      "নির্ মাণ",
      "মাম লার",
      "ঠ া",
      "পা শে",
      "সে টা",
      "শ্র ে",
      "মে ডি",
      "আহমে দ",
      "আত ্ম",
      "নে ওয়ার",
      "আলো চনা",
      "পৌ র",
      "১ ৬",
      "কর বে",
      "চ লা",
      "কি ন",
      "ায় া",
      "বা হ",
      "ইউনিয় নের",
      "কর্ত ৃ",
      "গা ড়ি",
      "বা ল",
      "নির্বা হী",
      "র্ত ি",
      "স্ টি",
      "আরে ক",
      "ট ন",
      "উপ স্থিত",
      "ই ং",
      "কর্ম সূ",
      "সং ঘ",
      "অনু যায়ী",
      "বা বা",
      "যুক্ত রাষ্ট্র",
      "বৈ ঠ",
      "স্ব ী",
      "কে লে",
      "র্ ঘ",
      "আ সা",
      "মার া",
      "শ োর",
      "হলে ও",
      "বিশ্ব কা",
      "ভিত ্ত",
      "জাম ান",
      "হা ই",
      "সহ কারী",
      "মা স",
      "যু দ্ধ",
      "o n",
      "আ ন্দ",
      "পক্ষ ের",
      "প্রা থ",
      "অ ন্ত",
      "সংখ ্যা",
      "ব্র া",
      "পর িক",
      "ত ৃত",
      "বিরো ধী",
      "বিএন পি",
      "ণ ি",
      "প্র চার",
      "লী গ",
      "ায় ের",
      "প্রাথ মিক",
      "সি রি",
      "মি নি",
      "আট ক",
      "জ ির",
      "ফ ির",
      "আন্দ োল",
      "য খন",
      "থাক বে",
      "স্ক ুল",
      "য েন",
      "হাস ান",
      "দ প্ত",
      "অনু ষ্ঠিত",
      "র িক",
      "পা শি",
      "খ াল",
      "১ ৩",
      "পাশা পাশি",
      "এ ত",
      "না ই",
      "অব স্থান",
      "স ন",
      "পর ্যা",
      "র্ ট",
      "কে ই",
      "ল াল",
      "শ্র মিক",
      "থান ায়",
      "বো র্",
      "ঙ্গ ি",
      "মি ত",
      "আ ছেন",
      "প থে",
      "সম স্যা",
      "বাজার ে",
      "চ য়",
      "উল্ লেখ",
      "পরী ক্ষ",
      "বা স্ত",
      "সহ যোগ",
      "ও সি",
      "নিয় ন্ত্র",
      "ক্ষ তি",
      "বাই রে",
      "বাস ী",
      "সি ক",
      "নির্ দেশ",
      "পরিক ল্প",
      "সি ড",
      "অভি যান",
      "ব ঙ্গ",
      "ভার প্রাপ্ত",
      "দল ীয়",
      "থেকে ই",
      "হাম লা",
      "চাই লে",
      ") ,",
      "্য াল",
      "বিদ্য ু",
      "নে তৃত",
      "ম হা",
      "ৌ শ",
      "কর্ম ী",
      "ম্যা চে",
      "আদাল তে",
      "খে লা",
      "কমি টি",
      "থ ায়",
      "ার ি",
      "পরি বারের",
      "খ ালে",
      "স্ট্র ে",
      "অ ্যান্ড",
      "দ ৃ",
      "এ ল",
      "ব ই",
      "া জ",
      "ভার ত",
      "গ ুলি",
      "জী ব",
      "স মি",
      "পরিষ দের",
      "জ্ঞ া",
      "পরী ক্ষা",
      "ম র",
      "মেডি কেল",
      "আ বেদন",
      "দ ন",
      "বিভা গ",
      "কা ছ",
      "২ ২",
      "মা ঠে",
      "পরি বর্ত",
      "পরি বার",
      "বে ড়ে",
      "সম য়ে",
      "ই য়া",
      "উ ল",
      "জানিয়ে ছেন",
      "য় েন্",
      "জী বন",
      "কর লে",
      "খে ল",
      "কর বেন",
      "দী র্ঘ",
      "ক্ত ির",
      "উন্ন য়ন",
      ". .",
      "নি জ",
      "ব র্",
      "হা ত",
      "চ ্য",
      "জী বী",
      "গ ার",
      "ঢা কার",
      "প্রতি নি",
      "গ ি",
      "মি টার",
      "বি পক্ষে",
      "কা জে",
      "স ুর",
      "জ্ জামান",
      "গ ী",
      "কেন্দ্র ীয়",
      "ন গ",
      "জন ্ম",
      "ড়া ই",
      "স ত্য",
      "স ৌ",
      "ত রু",
      "কো ন",
      "খ র",
      "a t",
      "স র্",
      "ভা ঙ",
      "প্রি য়",
      "া ই",
      "জ ুর",
      "স র্ব",
      "১ ৭",
      "আপ নার",
      "সু বি",
      "ন েন",
      "যু ক্তি",
      "ফি রে",
      "দ লে",
      "জি য়া",
      "যা ওয়া",
      "স প্ত",
      "ওয় ান",
      "৪ ০",
      "বাড়ি তে",
      "ভ র্তি",
      "পো রে",
      "কর পোরে",
      "সহ ায়",
      "চিকিৎ স",
      "আ শা",
      "i s",
      "পরি বেশ",
      "ম হাস",
      "পা ড়া",
      "বি মান",
      "মি য়া",
      "জ ্য",
      "অব স্থায়",
      "দর্শ ক",
      "জানান ো",
      "শ র",
      "বা দী",
      "e s",
      "স ন্ত",
      "যা ঁ",
      "কার ও",
      "মাম লায়",
      "সূ ত্রে",
      "সাং সদ",
      "মে য়",
      "ও র",
      "কা উন্",
      "ন ীর",
      "গ ড়ে",
      "মা ঝ",
      "জ ল",
      "পর্যা য়ে",
      "বিশ্ববিদ্যাল য়",
      "স্ টার",
      "o u",
      "ম ত",
      "ড় ার",
      "আ য়ো",
      "র কম",
      "স্ত্র ী",
      "শহ রের",
      "বাংলাদেশ ে",
      "্ বে",
      "দর্ শন",
      "ফা ঁ",
      "অ ধ্যা",
      "জ ড়",
      "স ান",
      "তা হলে",
      "মৃত ্যু",
      "বি ক্রি",
      "দ্র ুত",
      "সম্পর্ কে",
      "নিরাপত্ত া",
      "ঘ ণ্",
      "ইউনিয় ন",
      "আ গের",
      "থাক তে",
      "বর্ত ী",
      "এ গিয়ে",
      "পাঠ ানো",
      "প্র ত্যা",
      "e n",
      "জা হা",
      "বছ রে",
      "২ ৪",
      "চিকিৎ সা",
      "অপ রা",
      "ই নি",
      "রো ধ",
      "মান ব",
      "ম ী",
      "শ ুর",
      "ন্ত্র া",
      "গে ল",
      "সি লে",
      "ন গর",
      "প্রতিনি ধি",
      "প্র স্ত",
      "সে টি",
      "ধ ্ব",
      "ক্ষম তা",
      "য় াম",
      "’ ।",
      "২ ১",
      "গ্রাম ে",
      "িক ্ত",
      "বল তে",
      "যোগ ্য",
      "রাজধান ীর",
      "ম স",
      "মার্ চ",
      "খো ঁ",
      "সার া",
      "অ থ",
      "কর্মসূ চি",
      "সংগঠ ন",
      "জ েন",
      "মা সে",
      "প্র স্তা",
      "কা ণ্ড",
      "দ ণ্ড",
      "হ র",
      "গে লে",
      "কো চ",
      "বা কি",
      "বি কেলে",
      "প দে",
      "দু পুরে",
      "ন ৌ",
      "স্ প",
      "জ ঙ্গি",
      "যো গে",
      "উ ঠ",
      "তিন টি",
      "ব্যাং কের",
      "স ৈ",
      "লোক জন",
      "পো শা",
      "র োগ",
      "কার খান",
      "খে লো",
      "স বার",
      "খেলো য়া",
      "খ ি",
      "প না",
      "ব সে",
      "মাহ মু",
      "জ মা",
      "২ ৩",
      "বৃ দ্ধ",
      "ন াল",
      "শ্র ী",
      "উই কেট",
      "অধ্যা পক",
      "শ ুন",
      "ওয়ার ্ড",
      "দি নে",
      "অ স্ত্র",
      "ঙ্ কা",
      "তির িক্ত",
      "স ন্ত্রা",
      "ন্ দা",
      "মেয় র",
      "ক ্যা",
      "য ৌ",
      "শ্ চি",
      "নায় ক"
    ]
  }
}